{
  "version": "1.0",
  "truncation": null,
  "padding": null,
  "added_tokens": [
    {
      "id": 0,
      "content": "[PAD]",
      "single_word": false,
      "lstrip": false,
      "rstrip": false,
      "normalized": false,
      "special": true
    },
    {
      "id": 1,
      "content": "[UNK]",
      "single_word": false,
      "lstrip": false,
      "rstrip": false,
      "normalized": false,
      "special": true
    },
    {
      "id": 2,
      "content": "[CODE]",
      "single_word": false,
      "lstrip": false,
      "rstrip": false,
      "normalized": false,
      "special": true
    }
  ],
  "normalizer": null,
  "pre_tokenizer": {
    "type": "Whitespace"
  },
  "post_processor": null,
  "decoder": null,
  "model": {
    "type": "BPE",
    "dropout": null,
    "unk_token": null,
    "continuing_subword_prefix": null,
    "end_of_word_suffix": null,
    "fuse_unk": false,
    "byte_fallback": false,
    "ignore_merges": false,
    "vocab": {
      "[PAD]": 0,
      "[UNK]": 1,
      "[CODE]": 2,
      "!": 3,
      "\"": 4,
      "#": 5,
      "$": 6,
      "%": 7,
      "&": 8,
      "'": 9,
      "(": 10,
      ")": 11,
      "*": 12,
      "+": 13,
      ",": 14,
      "-": 15,
      ".": 16,
      "/": 17,
      "0": 18,
      "1": 19,
      "2": 20,
      "3": 21,
      "4": 22,
      "5": 23,
      "6": 24,
      "7": 25,
      "8": 26,
      "9": 27,
      ":": 28,
      ";": 29,
      "<": 30,
      "=": 31,
      ">": 32,
      "?": 33,
      "@": 34,
      "A": 35,
      "B": 36,
      "C": 37,
      "D": 38,
      "E": 39,
      "F": 40,
      "G": 41,
      "H": 42,
      "I": 43,
      "J": 44,
      "K": 45,
      "L": 46,
      "M": 47,
      "N": 48,
      "O": 49,
      "P": 50,
      "Q": 51,
      "R": 52,
      "S": 53,
      "T": 54,
      "U": 55,
      "V": 56,
      "W": 57,
      "X": 58,
      "Y": 59,
      "Z": 60,
      "[": 61,
      "\\": 62,
      "]": 63,
      "^": 64,
      "_": 65,
      "`": 66,
      "a": 67,
      "b": 68,
      "c": 69,
      "d": 70,
      "e": 71,
      "f": 72,
      "g": 73,
      "h": 74,
      "i": 75,
      "j": 76,
      "k": 77,
      "l": 78,
      "m": 79,
      "n": 80,
      "o": 81,
      "p": 82,
      "q": 83,
      "r": 84,
      "s": 85,
      "t": 86,
      "u": 87,
      "v": 88,
      "w": 89,
      "x": 90,
      "y": 91,
      "z": 92,
      "{": 93,
      "|": 94,
      "}": 95,
      "~": 96,
      "©": 97,
      "±": 98,
      "º": 99,
      "Ü": 100,
      "à": 101,
      "á": 102,
      "ä": 103,
      "ç": 104,
      "è": 105,
      "ñ": 106,
      "ö": 107,
      "ú": 108,
      "ü": 109,
      "ğ": 110,
      "ı": 111,
      "ş": 112,
      "а": 113,
      "б": 114,
      "в": 115,
      "г": 116,
      "д": 117,
      "е": 118,
      "ж": 119,
      "з": 120,
      "и": 121,
      "й": 122,
      "к": 123,
      "л": 124,
      "м": 125,
      "н": 126,
      "о": 127,
      "п": 128,
      "р": 129,
      "с": 130,
      "т": 131,
      "у": 132,
      "ч": 133,
      "ы": 134,
      "—": 135,
      "“": 136,
      "”": 137,
      "▲": 138,
      "。": 139,
      "一": 140,
      "三": 141,
      "上": 142,
      "下": 143,
      "不": 144,
      "与": 145,
      "且": 146,
      "个": 147,
      "中": 148,
      "串": 149,
      "为": 150,
      "主": 151,
      "举": 152,
      "久": 153,
      "么": 154,
      "义": 155,
      "之": 156,
      "乐": 157,
      "也": 158,
      "书": 159,
      "乱": 160,
      "了": 161,
      "二": 162,
      "于": 163,
      "五": 164,
      "些": 165,
      "交": 166,
      "产": 167,
      "人": 168,
      "什": 169,
      "仅": 170,
      "从": 171,
      "他": 172,
      "令": 173,
      "以": 174,
      "们": 175,
      "件": 176,
      "任": 177,
      "优": 178,
      "会": 179,
      "传": 180,
      "伪": 181,
      "但": 182,
      "位": 183,
      "低": 184,
      "体": 185,
      "何": 186,
      "作": 187,
      "你": 188,
      "佳": 189,
      "使": 190,
      "來": 191,
      "例": 192,
      "供": 193,
      "侦": 194,
      "便": 195,
      "保": 196,
      "信": 197,
      "修": 198,
      "個": 199,
      "倍": 200,
      "候": 201,
      "值": 202,
      "做": 203,
      "停": 204,
      "像": 205,
      "允": 206,
      "元": 207,
      "充": 208,
      "先": 209,
      "克": 210,
      "免": 211,
      "入": 212,
      "全": 213,
      "公": 214,
      "六": 215,
      "共": 216,
      "关": 217,
      "其": 218,
      "具": 219,
      "典": 220,
      "兼": 221,
      "内": 222,
      "册": 223,
      "再": 224,
      "写": 225,
      "农": 226,
      "决": 227,
      "况": 228,
      "准": 229,
      "减": 230,
      "几": 231,
      "出": 232,
      "函": 233,
      "分": 234,
      "列": 235,
      "则": 236,
      "创": 237,
      "初": 238,
      "删": 239,
      "判": 240,
      "別": 241,
      "利": 242,
      "别": 243,
      "到": 244,
      "制": 245,
      "刷": 246,
      "刻": 247,
      "前": 248,
      "功": 249,
      "加": 250,
      "务": 251,
      "动": 252,
      "助": 253,
      "包": 254,
      "化": 255,
      "匹": 256,
      "十": 257,
      "协": 258,
      "单": 259,
      "印": 260,
      "即": 261,
      "厅": 262,
      "原": 263,
      "去": 264,
      "参": 265,
      "又": 266,
      "及": 267,
      "友": 268,
      "双": 269,
      "反": 270,
      "发": 271,
      "取": 272,
      "受": 273,
      "变": 274,
      "口": 275,
      "句": 276,
      "另": 277,
      "只": 278,
      "叫": 279,
      "可": 280,
      "台": 281,
      "号": 282,
      "吃": 283,
      "合": 284,
      "同": 285,
      "名": 286,
      "后": 287,
      "否": 288,
      "含": 289,
      "听": 290,
      "启": 291,
      "告": 292,
      "员": 293,
      "呢": 294,
      "和": 295,
      "哈": 296,
      "响": 297,
      "哦": 298,
      "哪": 299,
      "唯": 300,
      "單": 301,
      "器": 302,
      "四": 303,
      "回": 304,
      "因": 305,
      "围": 306,
      "固": 307,
      "圈": 308,
      "在": 309,
      "地": 310,
      "场": 311,
      "圾": 312,
      "址": 313,
      "均": 314,
      "坐": 315,
      "块": 316,
      "垃": 317,
      "型": 318,
      "執": 319,
      "基": 320,
      "填": 321,
      "境": 322,
      "增": 323,
      "声": 324,
      "处": 325,
      "备": 326,
      "复": 327,
      "外": 328,
      "多": 329,
      "够": 330,
      "大": 331,
      "天": 332,
      "太": 333,
      "失": 334,
      "头": 335,
      "好": 336,
      "如": 337,
      "始": 338,
      "子": 339,
      "字": 340,
      "存": 341,
      "它": 342,
      "安": 343,
      "完": 344,
      "定": 345,
      "实": 346,
      "客": 347,
      "宣": 348,
      "家": 349,
      "容": 350,
      "密": 351,
      "實": 352,
      "寫": 353,
      "对": 354,
      "导": 355,
      "封": 356,
      "将": 357,
      "將": 358,
      "對": 359,
      "小": 360,
      "少": 361,
      "尝": 362,
      "就": 363,
      "尸": 364,
      "尾": 365,
      "局": 366,
      "层": 367,
      "属": 368,
      "工": 369,
      "差": 370,
      "已": 371,
      "币": 372,
      "帐": 373,
      "带": 374,
      "常": 375,
      "平": 376,
      "年": 377,
      "并": 378,
      "序": 379,
      "库": 380,
      "应": 381,
      "底": 382,
      "度": 383,
      "座": 384,
      "建": 385,
      "开": 386,
      "异": 387,
      "弃": 388,
      "弊": 389,
      "式": 390,
      "引": 391,
      "张": 392,
      "弹": 393,
      "强": 394,
      "当": 395,
      "录": 396,
      "形": 397,
      "影": 398,
      "径": 399,
      "待": 400,
      "很": 401,
      "得": 402,
      "循": 403,
      "微": 404,
      "德": 405,
      "心": 406,
      "必": 407,
      "忘": 408,
      "快": 409,
      "态": 410,
      "思": 411,
      "性": 412,
      "总": 413,
      "恢": 414,
      "息": 415,
      "您": 416,
      "情": 417,
      "惩": 418,
      "意": 419,
      "戏": 420,
      "成": 421,
      "我": 422,
      "或": 423,
      "戶": 424,
      "户": 425,
      "房": 426,
      "所": 427,
      "手": 428,
      "才": 429,
      "打": 430,
      "托": 431,
      "扣": 432,
      "执": 433,
      "找": 434,
      "把": 435,
      "抛": 436,
      "报": 437,
      "押": 438,
      "抽": 439,
      "拐": 440,
      "拟": 441,
      "括": 442,
      "拷": 443,
      "持": 444,
      "挂": 445,
      "指": 446,
      "按": 447,
      "挡": 448,
      "挤": 449,
      "挨": 450,
      "捕": 451,
      "换": 452,
      "据": 453,
      "掉": 454,
      "排": 455,
      "接": 456,
      "控": 457,
      "描": 458,
      "提": 459,
      "插": 460,
      "搜": 461,
      "携": 462,
      "摘": 463,
      "撰": 464,
      "擇": 465,
      "操": 466,
      "支": 467,
      "收": 468,
      "改": 469,
      "放": 470,
      "故": 471,
      "效": 472,
      "数": 473,
      "整": 474,
      "數": 475,
      "文": 476,
      "斗": 477,
      "断": 478,
      "斯": 479,
      "新": 480,
      "方": 481,
      "於": 482,
      "旁": 483,
      "无": 484,
      "日": 485,
      "时": 486,
      "明": 487,
      "是": 488,
      "显": 489,
      "時": 490,
      "普": 491,
      "景": 492,
      "暂": 493,
      "更": 494,
      "最": 495,
      "月": 496,
      "有": 497,
      "服": 498,
      "未": 499,
      "本": 500,
      "术": 501,
      "机": 502,
      "杂": 503,
      "权": 504,
      "束": 505,
      "条": 506,
      "来": 507,
      "构": 508,
      "析": 509,
      "枚": 510,
      "果": 511,
      "某": 512,
      "查": 513,
      "栈": 514,
      "校": 515,
      "样": 516,
      "根": 517,
      "格": 518,
      "档": 519,
      "检": 520,
      "棋": 521,
      "椅": 522,
      "榜": 523,
      "標": 524,
      "模": 525,
      "次": 526,
      "欢": 527,
      "止": 528,
      "正": 529,
      "此": 530,
      "步": 531,
      "死": 532,
      "残": 533,
      "段": 534,
      "毁": 535,
      "每": 536,
      "比": 537,
      "毕": 538,
      "毫": 539,
      "民": 540,
      "求": 541,
      "没": 542,
      "法": 543,
      "注": 544,
      "洗": 545,
      "派": 546,
      "测": 547,
      "消": 548,
      "添": 549,
      "清": 550,
      "游": 551,
      "源": 552,
      "準": 553,
      "溢": 554,
      "满": 555,
      "滤": 556,
      "火": 557,
      "炸": 558,
      "点": 559,
      "為": 560,
      "然": 561,
      "父": 562,
      "版": 563,
      "牌": 564,
      "特": 565,
      "状": 566,
      "独": 567,
      "王": 568,
      "玩": 569,
      "环": 570,
      "现": 571,
      "理": 572,
      "生": 573,
      "用": 574,
      "由": 575,
      "申": 576,
      "界": 577,
      "略": 578,
      "登": 579,
      "白": 580,
      "百": 581,
      "的": 582,
      "盖": 583,
      "盘": 584,
      "盡": 585,
      "目": 586,
      "直": 587,
      "相": 588,
      "看": 589,
      "着": 590,
      "知": 591,
      "码": 592,
      "研": 593,
      "确": 594,
      "碼": 595,
      "示": 596,
      "离": 597,
      "种": 598,
      "秒": 599,
      "称": 600,
      "移": 601,
      "程": 602,
      "稍": 603,
      "税": 604,
      "究": 605,
      "空": 606,
      "立": 607,
      "端": 608,
      "符": 609,
      "第": 610,
      "等": 611,
      "策": 612,
      "筛": 613,
      "签": 614,
      "简": 615,
      "算": 616,
      "管": 617,
      "箭": 618,
      "类": 619,
      "精": 620,
      "系": 621,
      "素": 622,
      "索": 623,
      "红": 624,
      "级": 625,
      "纯": 626,
      "线": 627,
      "组": 628,
      "经": 629,
      "结": 630,
      "给": 631,
      "络": 632,
      "统": 633,
      "继": 634,
      "续": 635,
      "维": 636,
      "编": 637,
      "网": 638,
      "罚": 639,
      "置": 640,
      "群": 641,
      "翻": 642,
      "考": 643,
      "者": 644,
      "而": 645,
      "聊": 646,
      "联": 647,
      "背": 648,
      "胜": 649,
      "能": 650,
      "腾": 651,
      "自": 652,
      "至": 653,
      "致": 654,
      "般": 655,
      "艺": 656,
      "花": 657,
      "范": 658,
      "获": 659,
      "萨": 660,
      "虑": 661,
      "行": 662,
      "表": 663,
      "被": 664,
      "製": 665,
      "複": 666,
      "要": 667,
      "覆": 668,
      "观": 669,
      "规": 670,
      "觉": 671,
      "解": 672,
      "触": 673,
      "言": 674,
      "許": 675,
      "語": 676,
      "說": 677,
      "請": 678,
      "警": 679,
      "變": 680,
      "计": 681,
      "认": 682,
      "让": 683,
      "议": 684,
      "讯": 685,
      "记": 686,
      "许": 687,
      "论": 688,
      "设": 689,
      "访": 690,
      "证": 691,
      "试": 692,
      "话": 693,
      "询": 694,
      "该": 695,
      "语": 696,
      "误": 697,
      "说": 698,
      "请": 699,
      "读": 700,
      "谁": 701,
      "调": 702,
      "豆": 703,
      "象": 704,
      "贝": 705,
      "负": 706,
      "责": 707,
      "败": 708,
      "货": 709,
      "费": 710,
      "赛": 711,
      "赢": 712,
      "走": 713,
      "起": 714,
      "超": 715,
      "跑": 716,
      "路": 717,
      "跳": 718,
      "踢": 719,
      "身": 720,
      "較": 721,
      "转": 722,
      "轮": 723,
      "载": 724,
      "辅": 725,
      "辑": 726,
      "输": 727,
      "迅": 728,
      "过": 729,
      "运": 730,
      "返": 731,
      "还": 732,
      "这": 733,
      "进": 734,
      "连": 735,
      "述": 736,
      "退": 737,
      "送": 738,
      "适": 739,
      "逃": 740,
      "选": 741,
      "通": 742,
      "速": 743,
      "造": 744,
      "逻": 745,
      "運": 746,
      "遍": 747,
      "選": 748,
      "避": 749,
      "邮": 750,
      "部": 751,
      "都": 752,
      "配": 753,
      "醒": 754,
      "释": 755,
      "里": 756,
      "重": 757,
      "量": 758,
      "金": 759,
      "针": 760,
      "钟": 761,
      "钥": 762,
      "钱": 763,
      "银": 764,
      "销": 765,
      "错": 766,
      "长": 767,
      "闭": 768,
      "问": 769,
      "闲": 770,
      "间": 771,
      "队": 772,
      "防": 773,
      "际": 774,
      "陆": 775,
      "限": 776,
      "陣": 777,
      "除": 778,
      "随": 779,
      "隔": 780,
      "障": 781,
      "集": 782,
      "雖": 783,
      "雜": 784,
      "雷": 785,
      "需": 786,
      "非": 787,
      "面": 788,
      "音": 789,
      "項": 790,
      "須": 791,
      "页": 792,
      "项": 793,
      "须": 794,
      "题": 795,
      "验": 796,
      "體": 797,
      "高": 798,
      "鲨": 799,
      "黑": 800,
      "默": 801,
      "﻿": 802,
      "（": 803,
      "）": 804,
      "，": 805,
      "：": 806,
      "；": 807,
      "？": 808,
      "--": 809,
      "----": 810,
      "in": 811,
      "er": 812,
      "es": 813,
      "on": 814,
      "or": 815,
      "**": 816,
      "at": 817,
      "en": 818,
      "se": 819,
      "--------": 820,
      "st": 821,
      "th": 822,
      "ar": 823,
      "re": 824,
      "##": 825,
      "de": 826,
      "me": 827,
      "le": 828,
      "al": 829,
      "an": 830,
      "ct": 831,
      "ion": 832,
      "co": 833,
      "****": 834,
      "ing": 835,
      "ro": 836,
      "ame": 837,
      "it": 838,
      "is": 839,
      "il": 840,
      "if": 841,
      "et": 842,
      "int": 843,
      "tr": 844,
      "----------------": 845,
      "la": 846,
      "//": 847,
      "ch": 848,
      "==": 849,
      "ut": 850,
      ");": 851,
      "ent": 852,
      "ur": 853,
      "lo": 854,
      "IN": 855,
      "ce": 856,
      "est": 857,
      "lf": 858,
      "ex": 859,
      "####": 860,
      "self": 861,
      "to": 862,
      "ic": 863,
      "mp": 864,
      "EN": 865,
      "ab": 866,
      "el": 867,
      "ed": 868,
      "the": 869,
      "get": 870,
      "un": 871,
      "ty": 872,
      "id": 873,
      "v_": 874,
      "ul": 875,
      "as": 876,
      "RE": 877,
      "ect": 878,
      "()": 879,
      "ad": 880,
      "ap": 881,
      "********": 882,
      "ON": 883,
      "\",": 884,
      "name": 885,
      "for": 886,
      "00": 887,
      "no": 888,
      "pt": 889,
      "ate": 890,
      "AT": 891,
      "test": 892,
      "ri": 893,
      "Str": 894,
      "OR": 895,
      "and": 896,
      "PE": 897,
      "pe": 898,
      "TY": 899,
      "res": 900,
      "ser": 901,
      "String": 902,
      "ild": 903,
      "con": 904,
      "ub": 905,
      "ort": 906,
      "urn": 907,
      "ret": 908,
      "end": 909,
      "ver": 910,
      "ue": 911,
      "bu": 912,
      "code": 913,
      "te": 914,
      "_f": 915,
      "TYPE": 916,
      "pro": 917,
      "return": 918,
      "ms": 919,
      "TH": 920,
      "--------------------------------": 921,
      "str": 922,
      "ile": 923,
      "of": 924,
      "ER": 925,
      "mo": 926,
      "cl": 927,
      "ess": 928,
      "sy": 929,
      "ir": 930,
      "In": 931,
      "=\"": 932,
      "ME": 933,
      "ation": 934,
      "ING": 935,
      "par": 936,
      "bj": 937,
      "AS": 938,
      "po": 939,
      "def": 940,
      "T_": 941,
      "ck": 942,
      "act": 943,
      "ist": 944,
      "arg": 945,
      "AL": 946,
      "do": 947,
      "ption": 948,
      "0x": 949,
      "CL": 950,
      "t_": 951,
      "per": 952,
      "s_": 953,
      "c_": 954,
      "lay": 955,
      "########": 956,
      "END": 957,
      "ma": 958,
      "))": 959,
      "->": 960,
      "val": 961,
      "bject": 962,
      "am": 963,
      "type": 964,
      "ment": 965,
      "',": 966,
      "ig": 967,
      "ult": 968,
      "ge": 969,
      "====": 970,
      "om": 971,
      "ew": 972,
      "ata": 973,
      "TE": 974,
      "ext": 975,
      "ine": 976,
      "'.": 977,
      "TI": 978,
      "sh": 979,
      "(\"": 980,
      "build": 981,
      "play": 982,
      "ht": 983,
      "lv_": 984,
      "ase": 985,
      "cor": 986,
      "imp": 987,
      "DS": 988,
      "):": 989,
      "out": 990,
      "not": 991,
      "ve": 992,
      "this": 993,
      "com": 994,
      "lic": 995,
      "ff": 996,
      ").": 997,
      "ter": 998,
      "LE": 999,
      "****************": 1000,
      "msg": 1001,
      "las": 1002,
      "ory": 1003,
      "Name": 1004,
      "ith": 1005,
      "ke": 1006,
      "able": 1007,
      "bo": 1008,
      "\"\"": 1009,
      "Co": 1010,
      "set": 1011,
      "ti": 1012,
      "player": 1013,
      "add": 1014,
      "clas": 1015,
      "um": 1016,
      "ASS": 1017,
      "import": 1018,
      "us": 1019,
      "ra": 1020,
      "Ch": 1021,
      "ublic": 1022,
      "all": 1023,
      "data": 1024,
      "Th": 1025,
      "ception": 1026,
      "new": 1027,
      "iz": 1028,
      "em": 1029,
      "core": 1030,
      "Ex": 1031,
      "AN": 1032,
      "value": 1033,
      "vo": 1034,
      "Re": 1035,
      "TO": 1036,
      "py": 1037,
      "IF": 1038,
      "qu": 1039,
      "*/": 1040,
      "public": 1041,
      "Po": 1042,
      "ST": 1043,
      "up": 1044,
      "od": 1045,
      "SE": 1046,
      "av": 1047,
      "be": 1048,
      "St": 1049,
      "TION": 1050,
      "CLASS": 1051,
      "log": 1052,
      "cl_": 1053,
      "////": 1054,
      "comp": 1055,
      "object": 1056,
      "DE": 1057,
      "class": 1058,
      "DAT": 1059,
      "();": 1060,
      "200": 1061,
      "_t": 1062,
      "args": 1063,
      "row": 1064,
      "void": 1065,
      "AR": 1066,
      "Lo": 1067,
      "one": 1068,
      "so": 1069,
      "put": 1070,
      "actory": 1071,
      "..": 1072,
      "age": 1073,
      "32": 1074,
      "AB": 1075,
      "THO": 1076,
      "AP": 1077,
      "err": 1078,
      "pr": 1079,
      "('": 1080,
      "ap_": 1081,
      "IS": 1082,
      "_s": 1083,
      "METHO": 1084,
      "atch": 1085,
      "rig": 1086,
      "ID": 1087,
      "Exception": 1088,
      "string": 1089,
      "app": 1090,
      "thod": 1091,
      "right": 1092,
      "p1": 1093,
      "else": 1094,
      "fo": 1095,
      "stat": 1096,
      "),": 1097,
      "NO": 1098,
      "rom": 1099,
      "line": 1100,
      "ls_": 1101,
      "exp": 1102,
      "EC": 1103,
      "MP": 1104,
      "ORT": 1105,
      "ENT": 1106,
      "ction": 1107,
      "LO": 1108,
      "point": 1109,
      "with": 1110,
      "ell": 1111,
      "Test": 1112,
      "EX": 1113,
      "OF": 1114,
      "eck": 1115,
      "];": 1116,
      "but": 1117,
      "fin": 1118,
      "========": 1119,
      "result": 1120,
      "################": 1121,
      "art": 1122,
      "ize": 1123,
      "len": 1124,
      "uint": 1125,
      "x_": 1126,
      "iv_": 1127,
      "key": 1128,
      "cont": 1129,
      "FRE": 1130,
      "En": 1131,
      "file": 1132,
      "Id": 1133,
      "param": 1134,
      "RO": 1135,
      "os": 1136,
      "DSP": 1137,
      "ol": 1138,
      "_O": 1139,
      "cess": 1140,
      "_code": 1141,
      "ers": 1142,
      "ite": 1143,
      "by": 1144,
      "Ar": 1145,
      "_d": 1146,
      "print": 1147,
      "_factory": 1148,
      "Object": 1149,
      "p2": 1150,
      "pyright": 1151,
      "ll": 1152,
      "throw": 1153,
      "lin": 1154,
      "DATA": 1155,
      "im": 1156,
      "sc": 1157,
      "De": 1158,
      "':": 1159,
      "----------------------------------------------------------------": 1160,
      "+=": 1161,
      "wh": 1162,
      "vi": 1163,
      "time": 1164,
      "ORTING": 1165,
      "ode": 1166,
      "use": 1167,
      "ath": 1168,
      "Bu": 1169,
      "are": 1170,
      "from": 1171,
      "wor": 1172,
      "ull": 1173,
      "/**": 1174,
      "Ste": 1175,
      "Step": 1176,
      "Con": 1177,
      "method": 1178,
      "ES": 1179,
      "UR": 1180,
      "],": 1181,
      "SY": 1182,
      "ure": 1183,
      "Pro": 1184,
      "01": 1185,
      "DO": 1186,
      "mand": 1187,
      "win": 1188,
      "TAB": 1189,
      "pa": 1190,
      "append": 1191,
      "check": 1192,
      "Point": 1193,
      "state": 1194,
      "test_": 1195,
      "score": 1196,
      "LI": 1197,
      "User": 1198,
      "dex": 1199,
      "D_": 1200,
      "sion": 1201,
      "64": 1202,
      "=>": 1203,
      "NS": 1204,
      "SON": 1205,
      "msgv": 1206,
      "abap_": 1207,
      "Ad": 1208,
      "error": 1209,
      "it_": 1210,
      "di": 1211,
      "Copyright": 1212,
      "ep": 1213,
      "ession": 1214,
      "RA": 1215,
      "low": 1216,
      "ign": 1217,
      "List": 1218,
      "addStep": 1219,
      "CON": 1220,
      "loc": 1221,
      "JSON": 1222,
      "unt": 1223,
      "ray": 1224,
      "AG": 1225,
      "lt_": 1226,
      "#.": 1227,
      "sub": 1228,
      "tri": 1229,
      "output": 1230,
      "OP": 1231,
      "und": 1232,
      "fa": 1233,
      "ance": 1234,
      "ml": 1235,
      "\";": 1236,
      "cur": 1237,
      "ken": 1238,
      "For": 1239,
      "lement": 1240,
      "METHOD": 1241,
      "To": 1242,
      "urce": 1243,
      "EL": 1244,
      "((": 1245,
      "alse": 1246,
      "FOR": 1247,
      "form": 1248,
      "********************************": 1249,
      "WH": 1250,
      "RI": 1251,
      "var": 1252,
      "FI": 1253,
      "uct": 1254,
      "user": 1255,
      "player1": 1256,
      "player2": 1257,
      "--------------------------------------------------------------------": 1258,
      "By": 1259,
      "BJ": 1260,
      "read": 1261,
      "\"\"\"": 1262,
      "10": 1263,
      "ran": 1264,
      "AME": 1265,
      "case": 1266,
      "compile": 1267,
      "BJEC": 1268,
      "@\"": 1269,
      "num": 1270,
      "ly": 1271,
      "().": 1272,
      "list": 1273,
      "ip": 1274,
      "An": 1275,
      "builder": 1276,
      "ial": 1277,
      "')": 1278,
      "IMP": 1279,
      "None": 1280,
      "Res": 1281,
      "gen": 1282,
      "chan": 1283,
      "ain": 1284,
      "ill": 1285,
      "UN": 1286,
      "table": 1287,
      "Mode": 1288,
      "ass": 1289,
      "dow": 1290,
      "static": 1291,
      "room": 1292,
      "rc": 1293,
      "['": 1294,
      "ava": 1295,
      "tribut": 1296,
      "path": 1297,
      "Int": 1298,
      "Ro": 1299,
      "Get": 1300,
      "token": 1301,
      "ype": 1302,
      "esc": 1303,
      "qual": 1304,
      "////////": 1305,
      "VAL": 1306,
      "pp": 1307,
      "text": 1308,
      "UE": 1309,
      "get_": 1310,
      "[\"": 1311,
      "ger": 1312,
      "fig": 1313,
      "AND": 1314,
      "\")": 1315,
      "has": 1316,
      "asser": 1317,
      "throws": 1318,
      "])": 1319,
      "process": 1320,
      "essage": 1321,
      "Build": 1322,
      "der": 1323,
      "op": 1324,
      "dir": 1325,
      "that": 1326,
      "net": 1327,
      "NE": 1328,
      "UT": 1329,
      "ot": 1330,
      "ive": 1331,
      "util": 1332,
      "env": 1333,
      "ac": 1334,
      "annot": 1335,
      "16": 1336,
      "final": 1337,
      "9x": 1338,
      "ator": 1339,
      "DEF": 1340,
      "P1": 1341,
      "fil": 1342,
      "char": 1343,
      "UM": 1344,
      "ak": 1345,
      "ENDIF": 1346,
      "pos": 1347,
      "run": 1348,
      "index": 1349,
      "date": 1350,
      "ameter": 1351,
      "pri": 1352,
      "lean": 1353,
      "Points": 1354,
      "wr": 1355,
      "null": 1356,
      "define": 1357,
      "air": 1358,
      "\"))": 1359,
      "XM": 1360,
      "\");": 1361,
      "INI": 1362,
      "Op": 1363,
      "ition": 1364,
      "li": 1365,
      "server": 1366,
      "pre": 1367,
      "mv_": 1368,
      "ATE": 1369,
      "config": 1370,
      "Array": 1371,
      "Game": 1372,
      "command": 1373,
      "ente": 1374,
      "Len": 1375,
      "With": 1376,
      "CH": 1377,
      "inter": 1378,
      "CTION": 1379,
      "__": 1380,
      "The": 1381,
      "ach": 1382,
      "vent": 1383,
      "vel": 1384,
      "TABLE": 1385,
      "quals": 1386,
      "ION": 1387,
      "ag": 1388,
      "BDS": 1389,
      "sb": 1390,
      "rep": 1391,
      "gr": 1392,
      "ress": 1393,
      "ript": 1394,
      ">-": 1395,
      "try": 1396,
      "----------------------------------------------------------------------": 1397,
      "true": 1398,
      "C_": 1399,
      "bug": 1400,
      "APP": 1401,
      "Room": 1402,
      "SS": 1403,
      "count": 1404,
      "AD": 1405,
      "='": 1406,
      "clu": 1407,
      "*)": 1408,
      "IT": 1409,
      "i_": 1410,
      "Log": 1411,
      "Set": 1412,
      "linu": 1413,
      "URE": 1414,
      "start": 1415,
      "cre": 1416,
      "ne": 1417,
      "ties": 1418,
      "NSString": 1419,
      "*----------------------------------------------------------------------": 1420,
      "perties": 1421,
      "*----------------------------------------------------------------------*": 1422,
      "equals": 1423,
      "java": 1424,
      "shell": 1425,
      "annotation": 1426,
      "Stat": 1427,
      "\"],": 1428,
      "PRO": 1429,
      "ber": 1430,
      "IG": 1431,
      "MS": 1432,
      "P2": 1433,
      "ow": 1434,
      "ack": 1435,
      "expect": 1436,
      "hell": 1437,
      "call": 1438,
      "This": 1439,
      "EXP": 1440,
      "window": 1441,
      "!=": 1442,
      "eld": 1443,
      "++": 1444,
      "WI": 1445,
      "TEST": 1446,
      "fun": 1447,
      "pes": 1448,
      "stem": 1449,
      "Model": 1450,
      "(),": 1451,
      "WHEN": 1452,
      "TER": 1453,
      "Add": 1454,
      "ated": 1455,
      "parameter": 1456,
      "Data": 1457,
      "NAME": 1458,
      "sign": 1459,
      "All": 1460,
      "he": 1461,
      "ere": 1462,
      "load": 1463,
      "BJECT_": 1464,
      "option": 1465,
      "PU": 1466,
      "conn": 1467,
      "org": 1468,
      "CAL": 1469,
      "statement": 1470,
      "struct": 1471,
      ":(": 1472,
      "curr": 1473,
      "MA": 1474,
      "</": 1475,
      "p_": 1476,
      "zcl_": 1477,
      "APPEND": 1478,
      "/*": 1479,
      "bit": 1480,
      "port": 1481,
      "CE": 1482,
      "iv": 1483,
      "ise": 1484,
      "emul": 1485,
      "VALUE": 1486,
      "stm": 1487,
      ">>": 1488,
      "deep": 1489,
      "KE": 1490,
      "Win": 1491,
      "ield": 1492,
      "']": 1493,
      "enn": 1494,
      "boo": 1495,
      "));": 1496,
      "su": 1497,
      "ranch": 1498,
      "CO": 1499,
      "ument": 1500,
      "ennis": 1501,
      "File": 1502,
      "rr": 1503,
      "ient": 1504,
      "&&": 1505,
      "new_": 1506,
      "gener": 1507,
      "lock": 1508,
      "ilver": 1509,
      "lag": 1510,
      "IMPORTING": 1511,
      "MSG": 1512,
      "emulator": 1513,
      "ant": 1514,
      "exit": 1515,
      "priv": 1516,
      "_name": 1517,
      "level": 1518,
      "If": 1519,
      "================": 1520,
      "XML": 1521,
      "EXPORTING": 1522,
      "SBDS": 1523,
      "session": 1524,
      "ERR": 1525,
      "doc_": 1526,
      "METHODS": 1527,
      "SBDST_": 1528,
      "Xml": 1529,
      "ust": 1530,
      "ql": 1531,
      "ary": 1532,
      "private": 1533,
      "001": 1534,
      "Result": 1535,
      "size": 1536,
      "S_": 1537,
      "Score": 1538,
      "we": 1539,
      "child": 1540,
      "gth": 1541,
      "inclu": 1542,
      "col": 1543,
      "Tennis": 1544,
      "ERROR": 1545,
      "abc": 1546,
      "Status": 1547,
      "branch": 1548,
      "ref": 1549,
      ".#.": 1550,
      "source": 1551,
      "attribut": 1552,
      "game": 1553,
      "Com": 1554,
      "match": 1555,
      "ix": 1556,
      "DEFINI": 1557,
      "DEFINITION": 1558,
      "ay": 1559,
      "lease": 1560,
      "uint32": 1561,
      "WITH": 1562,
      "ind": 1563,
      "ong": 1564,
      "iend": 1565,
      "''": 1566,
      "mod": 1567,
      "Size": 1568,
      "[]": 1569,
      "ded": 1570,
      "rror": 1571,
      "Par": 1572,
      "init": 1573,
      "script": 1574,
      "Port": 1575,
      "Ut": 1576,
      "Val": 1577,
      "arm": 1578,
      "types": 1579,
      "classname": 1580,
      "ight": 1581,
      "desc": 1582,
      "());": 1583,
      "ule": 1584,
      "will": 1585,
      "M_": 1586,
      "mat": 1587,
      "arch": 1588,
      "AV": 1589,
      "ave": 1590,
      "uint8": 1591,
      "vm": 1592,
      "version": 1593,
      "status": 1594,
      "rect": 1595,
      "bs": 1596,
      "ziend": 1597,
      "','": 1598,
      "zienda": 1599,
      "ATION": 1600,
      "AGE": 1601,
      "htt": 1602,
      "temp": 1603,
      "mode": 1604,
      "fe": 1605,
      "ames": 1606,
      "logic": 1607,
      "work": 1608,
      "base": 1609,
      "IGN": 1610,
      "rev": 1611,
      "bre": 1612,
      "pass": 1613,
      "tab": 1614,
      "current": 1615,
      "12": 1616,
      "False": 1617,
      "apper": 1618,
      "_B": 1619,
      "message": 1620,
      "NEW": 1621,
      "TennisGame": 1622,
      "IL": 1623,
      "Address": 1624,
      "ENDMETHOD": 1625,
      "al_": 1626,
      "lt_table": 1627,
      "Ser": 1628,
      "Match": 1629,
      "VER": 1630,
      "CT": 1631,
      "mshell": 1632,
      "moke": 1633,
      "avmshell": 1634,
      "FUN": 1635,
      "Tr": 1636,
      "can": 1637,
      "dat": 1638,
      "l_": 1639,
      "man": 1640,
      "requ": 1641,
      "0xff": 1642,
      "contain": 1643,
      "ffer": 1644,
      "FRE_": 1645,
      "Error": 1646,
      "Wr": 1647,
      "_S": 1648,
      "onent": 1649,
      "mac_": 1650,
      "Int32": 1651,
      "stance": 1652,
      "ASE": 1653,
      "assert": 1654,
      "break": 1655,
      "Num": 1656,
      "ore": 1657,
      "REF": 1658,
      "uld": 1659,
      "So": 1660,
      "points": 1661,
      "word": 1662,
      "jo": 1663,
      "ector": 1664,
      "shellname": 1665,
      "15": 1666,
      ">=": 1667,
      "ail": 1668,
      "MESS": 1669,
      "TESTING": 1670,
      "True": 1671,
      "ao": 1672,
      "sp": 1673,
      "THER": 1674,
      "ok": 1675,
      "FO": 1676,
      "Session": 1677,
      "any": 1678,
      "Jo": 1679,
      "dis": 1680,
      "lect": 1681,
      "bot": 1682,
      "ision": 1683,
      "ty_": 1684,
      "*\"": 1685,
      "ffect": 1686,
      "ISING": 1687,
      ".'.": 1688,
      "<<": 1689,
      "ec": 1690,
      "},": 1691,
      "tests": 1692,
      "write": 1693,
      "au": 1694,
      "update": 1695,
      "tom": 1696,
      "We": 1697,
      "min": 1698,
      "Value": 1699,
      "ify": 1700,
      "DOC_": 1701,
      "_key": 1702,
      "nes": 1703,
      "oo": 1704,
      "ou": 1705,
      "ree": 1706,
      "################################": 1707,
      "Type": 1708,
      "aap_": 1709,
      "stmt": 1710,
      "MESSAGE": 1711,
      "Sy": 1712,
      "tw": 1713,
      "irty": 1714,
      "Thirty": 1715,
      "mo_": 1716,
      "client": 1717,
      "timeout": 1718,
      "http": 1719,
      "UInt32": 1720,
      "dist": 1721,
      "())": 1722,
      "...": 1723,
      "ED": 1724,
      "post": 1725,
      "generic": 1726,
      "UL": 1727,
      "ATURE": 1728,
      "pec": 1729,
      "02": 1730,
      "S9x": 1731,
      "zma": 1732,
      "view": 1733,
      "FIEL": 1734,
      "\":": 1735,
      "TR": 1736,
      "lines": 1737,
      "99": 1738,
      "ould": 1739,
      "INTO": 1740,
      "Me": 1741,
      "ca": 1742,
      "head": 1743,
      "'),": 1744,
      "Utente": 1745,
      "ces": 1746,
      "next": 1747,
      "ime": 1748,
      "Method": 1749,
      "abc_": 1750,
      "0x00": 1751,
      "DSP4": 1752,
      "][": 1753,
      "_text": 1754,
      "false": 1755,
      "ait": 1756,
      "event": 1757,
      "sla": 1758,
      "sed": 1759,
      "State": 1760,
      "linux_": 1761,
      "GE": 1762,
      "ROM": 1763,
      "_C": 1764,
      "node": 1765,
      "const": 1766,
      "length": 1767,
      "abap_true": 1768,
      "NUM": 1769,
      "ther": 1770,
      "component": 1771,
      "LOG": 1772,
      "OTHER": 1773,
      "ity": 1774,
      "cond": 1775,
      "fox": 1776,
      "*&": 1777,
      "Fif": 1778,
      "_RE": 1779,
      "teen": 1780,
      "Fifteen": 1781,
      "_c": 1782,
      "DSP3": 1783,
      "_M": 1784,
      "uo": 1785,
      "PER": 1786,
      "deep_factory": 1787,
      "Server": 1788,
      "TEX": 1789,
      "content": 1790,
      "RAISING": 1791,
      "change": 1792,
      "CALL": 1793,
      "silver": 1794,
      "INE": 1795,
      "number": 1796,
      "://": 1797,
      "At": 1798,
      "0xffff": 1799,
      "foxserver": 1800,
      "silverfoxserver": 1801,
      "\"!": 1802,
      "reg": 1803,
      "prop": 1804,
      "include": 1805,
      "-*": 1806,
      "ection": 1807,
      "p1Points": 1808,
      "p2Points": 1809,
      "ish": 1810,
      "unit_": 1811,
      "_ft": 1812,
      "mac": 1813,
      "P1point": 1814,
      "expected": 1815,
      "DB": 1816,
      "lo_": 1817,
      "ations": 1818,
      "defa": 1819,
      "chang": 1820,
      "cept": 1821,
      "elif": 1822,
      "And": 1823,
      "UP": 1824,
      "_test": 1825,
      "lat": 1826,
      "I_": 1827,
      "toString": 1828,
      "cl_abap_": 1829,
      "ans": 1830,
      "iter": 1831,
      "KEY": 1832,
      "on_": 1833,
      "properties": 1834,
      "optional": 1835,
      "cx_": 1836,
      "hn": 1837,
      "send": 1838,
      "revision": 1839,
      "ding": 1840,
      "opt": 1841,
      "RET": 1842,
      "function": 1843,
      "67": 1844,
      "ns": 1845,
      "wd": 1846,
      "ww": 1847,
      "its": 1848,
      "_fun": 1849,
      "\"-": 1850,
      "Su": 1851,
      "md": 1852,
      "stype": 1853,
      "acter": 1854,
      "Of": 1855,
      "WOR": 1856,
      "sql": 1857,
      "own": 1858,
      "Fin": 1859,
      "lcl_": 1860,
      "when": 1861,
      "////////////////": 1862,
      "John": 1863,
      "idman": 1864,
      "bl": 1865,
      "rv_": 1866,
      "CLI": 1867,
      "PAR": 1868,
      "item": 1869,
      "_OBJECT_": 1870,
      "assert_": 1871,
      "Builder": 1872,
      "BU": 1873,
      "OL": 1874,
      "Se": 1875,
      "THE": 1876,
      "doc": 1877,
      "_bit": 1878,
      "clo": 1879,
      "parse": 1880,
      "ription": 1881,
      "Chair": 1882,
      "Time": 1883,
      "ifi": 1884,
      "::": 1885,
      "_ERROR": 1886,
      "READ": 1887,
      "=\"\",": 1888,
      "perty": 1889,
      "main": 1890,
      "_ftpost": 1891,
      "ename": 1892,
      "system": 1893,
      "action": 1894,
      "argo": 1895,
      "PUB": 1896,
      "default": 1897,
      "Love": 1898,
      "Command": 1899,
      "201": 1900,
      "hand": 1901,
      "should": 1902,
      "URN": 1903,
      "TEXT": 1904,
      "RETURN": 1905,
      "Ip": 1906,
      "nes9x": 1907,
      "Ac": 1908,
      "syn": 1909,
      "].": 1910,
      "back": 1911,
      "NOT_": 1912,
      "Open": 1913,
      "src": 1914,
      "copy": 1915,
      "BER": 1916,
      "FF": 1917,
      "Init": 1918,
      "ENDCLASS": 1919,
      "NUMBER": 1920,
      "FL": 1921,
      "lw": 1922,
      "Debug": 1923,
      "names": 1924,
      "classtype": 1925,
      "request": 1926,
      "Release": 1927,
      "subrc": 1928,
      "NEW_": 1929,
      "Action": 1930,
      "_id": 1931,
      "ker": 1932,
      "alv_": 1933,
      "exception": 1934,
      "iron": 1935,
      "dict": 1936,
      "AVM": 1937,
      "Fo": 1938,
      "IpPort": 1939,
      "55": 1940,
      "bla": 1941,
      "2003": 1942,
      "2006": 1943,
      "create": 1944,
      "<>": 1945,
      "set_": 1946,
      "amp": 1947,
      "d_": 1948,
      "Weidman": 1949,
      "TB": 1950,
      "location": 1951,
      "windows_": 1952,
      "WRI": 1953,
      "JSONObject": 1954,
      "fail": 1955,
      "WRITE": 1956,
      "MM": 1957,
      "used": 1958,
      "MSGV": 1959,
      "vmargs": 1960,
      "Do": 1961,
      "Effect": 1962,
      "Over": 1963,
      "obj": 1964,
      "export": 1965,
      "Arg": 1966,
      "CONT": 1967,
      "attributes": 1968,
      ":@\"": 1969,
      "sv": 1970,
      "select": 1971,
      "stri": 1972,
      "LOOP": 1973,
      "LINE": 1974,
      "late": 1975,
      "oftw": 1976,
      "bool": 1977,
      "tokens": 1978,
      "signed": 1979,
      "oftware": 1980,
      "CRE": 1981,
      "uble": 1982,
      "ASK": 1983,
      "enable": 1984,
      "getId": 1985,
      "SH": 1986,
      "sys": 1987,
      "P2point": 1988,
      "uolo": 1989,
      "Down": 1990,
      "ved": 1991,
      "0x7": 1992,
      "SYS": 1993,
      "Properties": 1994,
      "Forty": 1995,
      "WORD": 1996,
      "irst": 1997,
      "Pos": 1998,
      "Has": 1999,
      "url": 2000,
      "CLIENT": 2001,
      "\"#": 2002,
      "our": 2003,
      "files": 2004,
      "Element": 2005,
      "js": 2006,
      "other": 2007,
      "off": 2008,
      "environ": 2009,
      "FUNCTION": 2010,
      "FLAG": 2011,
      "CASE": 2012,
      "Mem": 2013,
      "utente": 2014,
      "log_": 2015,
      "P1res": 2016,
      "System": 2017,
      "info": 2018,
      "\"),": 2019,
      "199": 2020,
      "FROM": 2021,
      "Message": 2022,
      "duct": 2023,
      "FORM": 2024,
      "ERE": 2025,
      "flag": 2026,
      "go": 2027,
      "mer": 2028,
      "tes": 2029,
      "thor": 2030,
      "Reg": 2031,
      "SECTION": 2032,
      "map": 2033,
      "search": 2034,
      "trans": 2035,
      "mote": 2036,
      "Attribut": 2037,
      "SYSTE": 2038,
      "HT": 2039,
      "e_": 2040,
      "ream": 2041,
      "dele": 2042,
      "E_": 2043,
      "cation": 2044,
      "rame": 2045,
      "alloc": 2046,
      "intel": 2047,
      "Poker": 2048,
      "Context": 2049,
      "JSONException": 2050,
      "Byte": 2051,
      "P2res": 2052,
      "PokerName": 2053,
      "X_": 2054,
      "spec": 2055,
      "zs": 2056,
      "ENTATION": 2057,
      "boost": 2058,
      "cmd": 2059,
      "io": 2060,
      "ENT_": 2061,
      "unsigned": 2062,
      "msgid": 2063,
      "old": 2064,
      "pstmt": 2065,
      "only": 2066,
      "attr": 2067,
      "debug": 2068,
      "msgno": 2069,
      "open": 2070,
      "TIES": 2071,
      "Op1": 2072,
      "OBJECT_": 2073,
      "instance": 2074,
      "object_key": 2075,
      "imit": 2076,
      "CB": 2077,
      "Node": 2078,
      "non": 2079,
      "Index": 2080,
      "super": 2081,
      "03": 2082,
      "tra": 2083,
      "author": 2084,
      "@[": 2085,
      "Bo": 2086,
      "ense": 2087,
      "linux": 2088,
      "Write": 2089,
      "VAR": 2090,
      "description": 2091,
      "Di": 2092,
      "roup": 2093,
      "ask": 2094,
      "scriptargs": 2095,
      "join": 2096,
      "50": 2097,
      "PTION": 2098,
      "catch": 2099,
      "dy": 2100,
      "lit": 2101,
      "move": 2102,
      "Char": 2103,
      "Check": 2104,
      "AP_": 2105,
      "artboost": 2106,
      "byte": 2107,
      "****************************************************************": 2108,
      "roomId": 2109,
      "agra": 2110,
      "++)": 2111,
      "\"]": 2112,
      "ick": 2113,
      "Code": 2114,
      "pace": 2115,
      "BJECT": 2116,
      "(!": 2117,
      "Event": 2118,
      "ies": 2119,
      "End": 2120,
      "sb_": 2121,
      "agrafe": 2122,
      "Run": 2123,
      "Wor": 2124,
      "array": 2125,
      "INTER": 2126,
      "Env": 2127,
      "URL": 2128,
      "xml": 2129,
      "ific": 2130,
      "resp": 2131,
      "endif": 2132,
      "close": 2133,
      "Fun": 2134,
      "SP": 2135,
      "mon": 2136,
      "0000": 2137,
      "raise": 2138,
      "Chartboost": 2139,
      "EXCE": 2140,
      "OTHERS": 2141,
      "AD_": 2142,
      "kip": 2143,
      "last": 2144,
      "ms_": 2145,
      "CLASSNAME": 2146,
      "Memory": 2147,
      "Atom": 2148,
      "SU": 2149,
      "ich": 2150,
      "vant": 2151,
      "CLASSTYPE": 2152,
      "methods": 2153,
      "compile_factory": 2154,
      "EXCEPTION": 2155,
      "App": 2156,
      "_type": 2157,
      "factory": 2158,
      "led": 2159,
      "perform": 2160,
      "max": 2161,
      "TED": 2162,
      "buildbot": 2163,
      "red": 2164,
      "ang": 2165,
      "into": 2166,
      "loat": 2167,
      "('%": 2168,
      "ELSE": 2169,
      "bin": 2170,
      "bel": 2171,
      "cname": 2172,
      "mult": 2173,
      "you": 2174,
      "mail": 2175,
      "msgv1": 2176,
      "aoc_": 2177,
      "Flow": 2178,
      "ard": 2179,
      "itDown": 2180,
      "ute": 2181,
      "fore": 2182,
      "while": 2183,
      "field": 2184,
      "mis": 2185,
      "msgty": 2186,
      "msgv2": 2187,
      "unit_assert": 2188,
      "Attribute": 2189,
      "vantage": 2190,
      "atto": 2191,
      "tratto": 2192,
      "argument": 2193,
      "cores": 2194,
      "cl_abap_unit_assert": 2195,
      "14": 2196,
      "cal": 2197,
      "input": 2198,
      "chair": 2199,
      "top": 2200,
      "LOW": 2201,
      "msgv3": 2202,
      "msgv4": 2203,
      "Advantage": 2204,
      "format": 2205,
      "zcl_aoc_": 2206,
      "Al": 2207,
      "Snes9x": 2208,
      "ted": 2209,
      "ings": 2210,
      "idth": 2211,
      "test_generic": 2212,
      "gram": 2213,
      "SR": 2214,
      "direct": 2215,
      "Sh": 2216,
      "FREObject": 2217,
      "DOC": 2218,
      "'\\": 2219,
      "Azienda": 2220,
      "SIGN": 2221,
      "data_": 2222,
      "azienda": 2223,
      "LIC": 2224,
      "ble": 2225,
      "must": 2226,
      "ATCH": 2227,
      "Source": 2228,
      "lw_ftpost": 2229,
      "CREATE": 2230,
      "_no": 2231,
      "gtest_": 2232,
      "abase": 2233,
      "strIpPort": 2234,
      "STAT": 2235,
      "upport": 2236,
      "NOTEXT": 2237,
      "header": 2238,
      "components": 2239,
      "Text": 2240,
      "fter": 2241,
      "pbla": 2242,
      "vector": 2243,
      "Buffer": 2244,
      "pblabs": 2245,
      "AU": 2246,
      "ye": 2247,
      "property": 2248,
      "short": 2249,
      "Map": 2250,
      "RU": 2251,
      "des": 2252,
      "arget": 2253,
      "which": 2254,
      "TABLES": 2255,
      "nt": 2256,
      "sw": 2257,
      "ues": 2258,
      "arr": 2259,
      "_field": 2260,
      "boolean": 2261,
      "DOCUM": 2262,
      "lt": 2263,
      "getUser": 2264,
      "grid": 2265,
      "PUBLIC": 2266,
      "performance": 2267,
      "SIGNATURE": 2268,
      "test001": 2269,
      "addr": 2270,
      "ls_token": 2271,
      "test001_": 2272,
      "first": 2273,
      "my": 2274,
      "ence": 2275,
      "cell": 2276,
      "defin": 2277,
      "strip": 2278,
      "\"},": 2279,
      "US": 2280,
      "smoke": 2281,
      "lace": 2282,
      "processor": 2283,
      "p1points": 2284,
      "face": 2285,
      "FILE": 2286,
      "GET_": 2287,
      "respon": 2288,
      "86": 2289,
      "valid": 2290,
      "ally": 2291,
      "dz": 2292,
      "FIELD_": 2293,
      "G_": 2294,
      "MO": 2295,
      "WA": 2296,
      "WR": 2297,
      "=\"\"))": 2298,
      "ls_statement": 2299,
      "JSONArray": 2300,
      "_error": 2301,
      "mem": 2302,
      "ley": 2303,
      "ribut": 2304,
      "MPL": 2305,
      "users": 2306,
      "compile_": 2307,
      "hash": 2308,
      "sing": 2309,
      "was": 2310,
      "exec": 2311,
      "0x3": 2312,
      "implement": 2313,
      "rights": 2314,
      "WHERE": 2315,
      "emp": 2316,
      "avm": 2317,
      "_funcname": 2318,
      ".##": 2319,
      "Ddz": 2320,
      "Up": 2321,
      "ris": 2322,
      "lash": 2323,
      "program": 2324,
      "tern": 2325,
      "ASSIGN": 2326,
      "_smoke": 2327,
      "results": 2328,
      "split": 2329,
      "OUT": 2330,
      "fer": 2331,
      "nr": 2332,
      "leak": 2333,
      "argv": 2334,
      "double": 2335,
      "find": 2336,
      "assert_equals": 2337,
      "RETURNING": 2338,
      "%(": 2339,
      "Bleak": 2340,
      "From": 2341,
      "Kris": 2342,
      "qq": 2343,
      "erved": 2344,
      "ures": 2345,
      "asc": 2346,
      "Info": 2347,
      "NOT": 2348,
      "Bleakley": 2349,
      "11": 2350,
      "52": 2351,
      "ArrayList": 2352,
      "Base": 2353,
      "ax": 2354,
      "then": 2355,
      "LEM": 2356,
      "setup": 2357,
      "ache": 2358,
      "DI": 2359,
      "ss": 2360,
      "zcx_": 2361,
      "round": 2362,
      "most": 2363,
      "does": 2364,
      "uint32_t": 2365,
      "Mapper": 2366,
      "tain": 2367,
      "endor": 2368,
      "buffer": 2369,
      "LIKE": 2370,
      "64_": 2371,
      "condition": 2372,
      "UPDAT": 2373,
      "TBXML": 2374,
      "05": 2375,
      "EQ": 2376,
      "Play": 2377,
      "TC": 2378,
      "_p": 2379,
      "_re": 2380,
      "sch": 2381,
      "ery": 2382,
      "Finder": 2383,
      "'%": 2384,
      "CC": 2385,
      "clean": 2386,
      "long": 2387,
      "metr": 2388,
      "now": 2389,
      "Chan": 2390,
      "---------------------------------------------------------------------*": 2391,
      "initial": 2392,
      "metric": 2393,
      "CI": 2394,
      "illa": 2395,
      "abap": 2396,
      "Child": 2397,
      "ID_": 2398,
      "imation": 2399,
      "pack": 2400,
      "Tab": 2401,
      "ast": 2402,
      "step": 2403,
      "PROPER": 2404,
      "connection": 2405,
      "CX": 2406,
      "root": 2407,
      "poly": 2408,
      "doc_var": 2409,
      "_test_factory": 2410,
      "100": 2411,
      "ject": 2412,
      "order": 2413,
      "ature": 2414,
      "applic": 2415,
      "DSP3_": 2416,
      "2015": 2417,
      "VAR_": 2418,
      "Call": 2419,
      "Long": 2420,
      "mit": 2421,
      "skip": 2422,
      "reserved": 2423,
      "UND": 2424,
      "bar": 2425,
      "ice": 2426,
      "{'": 2427,
      "force": 2428,
      "testcase": 2429,
      "CLzma": 2430,
      "module": 2431,
      "L_": 2432,
      "fix": 2433,
      "not_": 2434,
      "cket": 2435,
      "lass": 2436,
      "Comp": 2437,
      "2001": 2438,
      "2002": 2439,
      "colum": 2440,
      "ished": 2441,
      "handle": 2442,
      "ASSIGNING": 2443,
      "PROPERTIES": 2444,
      "Mat": 2445,
      "mt_": 2446,
      "FLAGS": 2447,
      "#..": 2448,
      "[[": 2449,
      "uto": 2450,
      "exist": 2451,
      "CHAN": 2452,
      "slav": 2453,
      "ms_result": 2454,
      "ls": 2455,
      "les": 2456,
      "rad": 2457,
      "thon": 2458,
      "ride": 2459,
      "values": 2460,
      "ized": 2461,
      "Rep": 2462,
      "RAM": 2463,
      "log_level": 2464,
      "FE": 2465,
      "IC": 2466,
      "Mo": 2467,
      "zilla": 2468,
      "is_": 2469,
      "show": 2470,
      "izer": 2471,
      "without": 2472,
      "avmshell_": 2473,
      "WriteStr": 2474,
      "zcx_aap_": 2475,
      "\"\\": 2476,
      "667": 2477,
      "IT_": 2478,
      "hel": 2479,
      "except": 2480,
      "TIAL": 2481,
      "fol": 2482,
      "_date": 2483,
      "*&---------------------------------------------------------------------*": 2484,
      "Regist": 2485,
      "Cre": 2486,
      "Dis": 2487,
      "block": 2488,
      "uce": 2489,
      "width": 2490,
      "xServer": 2491,
      "INFO": 2492,
      "box": 2493,
      "WithProperties": 2494,
      "FoxServer": 2495,
      "delete": 2496,
      "BO": 2497,
      "No": 2498,
      "Silver": 2499,
      "arise": 2500,
      ")))": 2501,
      "12667": 2502,
      "datarise": 2503,
      "5212667": 2504,
      "SilverFoxServer": 2505,
      "521266750": 2506,
      "\".": 2507,
      "night": 2508,
      "product": 2509,
      "found": 2510,
      "deriv": 2511,
      "replace": 2512,
      "EXCEPTIONS": 2513,
      "Vi": 2514,
      "():": 2515,
      "vert": 2516,
      "p2points": 2517,
      "ppc": 2518,
      "Factory": 2519,
      "_P": 2520,
      "andp": 2521,
      "sert": 2522,
      "serandp": 2523,
      "Inte": 2524,
      "Inter": 2525,
      "Location": 2526,
      "mo_check": 2527,
      "Character": 2528,
      "''.": 2529,
      "Ruolo": 2530,
      "init_": 2531,
      "unit": 2532,
      "0x0": 2533,
      "URR": 2534,
      "OPTION": 2535,
      "IMPLEM": 2536,
      "view_": 2537,
      "changes": 2538,
      "IMPLEMENTATION": 2539,
      "aris": 2540,
      "copyright": 2541,
      "SELE": 2542,
      "Shell": 2543,
      "in_": 2544,
      "dout": 2545,
      "Format": 2546,
      "COMP": 2547,
      "%@": 2548,
      "Le": 2549,
      "p_code": 2550,
      "||": 2551,
      "stack": 2552,
      "tem": 2553,
      "_table": 2554,
      "pai": 2555,
      "interp": 2556,
      "================================": 2557,
      "logical_": 2558,
      "WriteStrBy": 2559,
      "Registers": 2560,
      "Integer": 2561,
      "logical_system": 2562,
      "34": 2563,
      ":%": 2564,
      "Lic": 2565,
      "ie": 2566,
      "ln": 2567,
      "reas": 2568,
      "leg": 2569,
      "REDEFINITION": 2570,
      "_file": 2571,
      "parent": 2572,
      "builds": 2573,
      "ANY": 2574,
      "sessionId": 2575,
      "_READ_": 2576,
      "offset": 2577,
      "Nach": 2578,
      "OK": 2579,
      "USE": 2580,
      "Wait": 2581,
      "nel": 2582,
      "repo": 2583,
      "construct": 2584,
      "Remote": 2585,
      "sol": 2586,
      "Cont": 2587,
      "lowing": 2588,
      "filter": 2589,
      "windows": 2590,
      "signature": 2591,
      "attribute": 2592,
      "element": 2593,
      "limit": 2594,
      "eng": 2595,
      "sett": 2596,
      "using": 2597,
      "vari": 2598,
      "player1Name": 2599,
      "options": 2600,
      "FOUND": 2601,
      "ified": 2602,
      "AC": 2603,
      "Cur": 2604,
      "IZ": 2605,
      "Kendor": 2606,
      "_SYSTE": 2607,
      "have": 2608,
      "ource": 2609,
      "ctx": 2610,
      "coding": 2611,
      "thew": 2612,
      "Conn": 2613,
      "interface": 2614,
      "parameters": 2615,
      "ailure": 2616,
      "month": 2617,
      "Matthew": 2618,
      "License": 2619,
      "Kendora": 2620,
      "here": 2621,
      "ld": 2622,
      "attern": 2623,
      "lear": 2624,
      "INAL": 2625,
      "CL_": 2626,
      "may": 2627,
      "range": 2628,
      "DSP4_READ_": 2629,
      "Line": 2630,
      "NAL": 2631,
      "tag": 2632,
      "x86": 2633,
      "std": 2634,
      "thing": 2635,
      "body": 2636,
      "mac_intel": 2637,
      "INTERNAL": 2638,
      "mac_intel_": 2639,
      "Vers": 2640,
      "flow": 2641,
      "rix": 2642,
      "CLU": 2643,
      "TES": 2644,
      "Tests": 2645,
      "__init_": 2646,
      "slave": 2647,
      "www": 2648,
      "Version": 2649,
      "__init__": 2650,
      "BE": 2651,
      "GB": 2652,
      "cial": 2653,
      "giv": 2654,
      "xception": 2655,
      "allow": 2656,
      "AMETER": 2657,
      "password": 2658,
      "Number": 2659,
      "PARAMETER": 2660,
      "mercial": 2661,
      "AM": 2662,
      "Lzma": 2663,
      "_value": 2664,
      "after": 2665,
      "roll": 2666,
      "label": 2667,
      "0x2": 2668,
      "Count": 2669,
      "p_text": 2670,
      "inue": 2671,
      "INVAL": 2672,
      "andro": 2673,
      "before": 2674,
      "_sub": 2675,
      "model": 2676,
      "1998": 2677,
      "OPTIONAL": 2678,
      "*\"],": 2679,
      "COP": 2680,
      "GHT": 2681,
      "Group": 2682,
      "WAR": 2683,
      "ler": 2684,
      "wait": 2685,
      "loop": 2686,
      "ected": 2687,
      "ape": 2688,
      "ver_no": 2689,
      "Instance": 2690,
      "typedef": 2691,
      "lv_x": 2692,
      "importing": 2693,
      "RIGHT": 2694,
      "Op0": 2695,
      "doc_ver_no": 2696,
      "contains": 2697,
      "COPY": 2698,
      "Ver": 2699,
      "dic": 2700,
      "mar": 2701,
      "int16": 2702,
      "INCLU": 2703,
      "0x4": 2704,
      "valueOf": 2705,
      "some": 2706,
      "_OK": 2707,
      "display": 2708,
      "distribut": 2709,
      "AVMFE": 2710,
      "CBLocation": 2711,
      "AVMFEATURE": 2712,
      "'):": 2713,
      "EV": 2714,
      "ning": 2715,
      "ost": 2716,
      "software": 2717,
      "wa": 2718,
      "cord": 2719,
      "105": 2720,
      "INITIAL": 2721,
      "Override": 2722,
      "following": 2723,
      "DSP4_READ_WORD": 2724,
      ".#..": 2725,
      "ICAL": 2726,
      "PO": 2727,
      "Un": 2728,
      "_ST": 2729,
      "iles": 2730,
      "\"\";": 2731,
      "DSP1": 2732,
      "LOGICAL": 2733,
      "Super": 2734,
      "ChairModel": 2735,
      "_SYSTEM": 2736,
      "COPYRIGHT": 2737,
      "LOGICAL_SYSTEM": 2738,
      "ILI": 2739,
      "LZ": 2740,
      "PRI": 2741,
      "_NO": 2742,
      "ft": 2743,
      "si": 2744,
      "starts": 2745,
      "Initial": 2746,
      "doc_var_id": 2747,
      "_NAME": 2748,
      "ous": 2749,
      "r_": 2750,
      "ten": 2751,
      "zion": 2752,
      "ern": 2753,
      "ative": 2754,
      "_flag": 2755,
      "THOR": 2756,
      "CLE": 2757,
      "foo": 2758,
      "UserModel": 2759,
      "ppc_": 2760,
      "character": 2761,
      "statements": 2762,
      "doc_id": 2763,
      "mac_ppc_": 2764,
      "DOC_VAR_": 2765,
      "MethodEnv": 2766,
      "AUTHOR": 2767,
      "mosttypes": 2768,
      "Pri": 2769,
      "pc": 2770,
      "Start": 2771,
      "template": 2772,
      "package": 2773,
      "android": 2774,
      ")->": 2775,
      "Auto": 2776,
      "gith": 2777,
      "patch": 2778,
      "sem": 2779,
      "\",\"": 2780,
      "vice": 2781,
      "mission": 2782,
      "github": 2783,
      "BIT": 2784,
      "LEN": 2785,
      "P_": 2786,
      "RC": 2787,
      "c_f": 2788,
      "resent": 2789,
      "player2Name": 2790,
      "ustom": 2791,
      "OBJECT_KEY": 2792,
      "column": 2793,
      "([": 2794,
      "Hand": 2795,
      "LIS": 2796,
      "Var": 2797,
      "ster": 2798,
      "alv": 2799,
      "an_": 2800,
      "stru": 2801,
      "extern": 2802,
      "RoomModel": 2803,
      "given": 2804,
      "Date": 2805,
      "Imp": 2806,
      "edul": 2807,
      "=\"-": 2808,
      "Col": 2809,
      "vious": 2810,
      "username": 2811,
      "ShellCommand": 2812,
      "(*": 2813,
      ".\"\"\"": 2814,
      "ual": 2815,
      "dep": 2816,
      "lot": 2817,
      "FRE_INVAL": 2818,
      "distance": 2819,
      "************************************************************************": 2820,
      "Pr": 2821,
      "Scores": 2822,
      "ob": 2823,
      "over": 2824,
      "stdout": 2825,
      "reen": 2826,
      "lob": 2827,
      "Enc": 2828,
      "XMLE": 2829,
      "TRY": 2830,
      "sync_": 2831,
      "settings": 2832,
      "_to": 2833,
      "i_funcname": 2834,
      "INDE": 2835,
      "TIME": 2836,
      "errty": 2837,
      "local": 2838,
      "intern": 2839,
      "matrix": 2840,
      "data_output": 2841,
      "XMLElement": 2842,
      "Frame": 2843,
      "Op2": 2844,
      "Send": 2845,
      "db": 2846,
      "kNum": 2847,
      "lm": 2848,
      "more": 2849,
      "ita": 2850,
      "int32": 2851,
      "ubs": 2852,
      "profil": 2853,
      "Chess": 2854,
      "TODO": 2855,
      "continue": 2856,
      "Arr": 2857,
      "fault": 2858,
      "position": 2859,
      "json_": 2860,
      "Bool": 2861,
      "DING": 2862,
      "GU": 2863,
      "Out": 2864,
      "cas": 2865,
      "assem": 2866,
      "../": 2867,
      "uint16": 2868,
      "check_": 2869,
      "abcOP": 2870,
      "workdir": 2871,
      "MatchFinder": 2872,
      "CIAL": 2873,
      ">\\": 2874,
      "FA": 2875,
      "He": 2876,
      "NUL": 2877,
      "Sc": 2878,
      "SOF": 2879,
      "StringBuilder": 2880,
      "Length": 2881,
      "itDownStatus": 2882,
      "upported": 2883,
      "ILITY": 2884,
      "BY": 2885,
      "Flash": 2886,
      "PL": 2887,
      "_import": 2888,
      "_list": 2889,
      "ste": 2890,
      "000": 2891,
      "=\"%": 2892,
      "ChChess": 2893,
      "ANT": 2894,
      "FREContext": 2895,
      "Logic": 2896,
      "Statement": 2897,
      "profiling": 2898,
      "Bits": 2899,
      "OS": 2900,
      "Sub": 2901,
      "VI": 2902,
      "PECIAL": 2903,
      "part": 2904,
      "vars": 2905,
      "color": 2906,
      "initWith": 2907,
      "Doc": 2908,
      "export_import": 2909,
      "application": 2910,
      "constructor": 2911,
      "assembl": 2912,
      "LD": 2913,
      "LL": 2914,
      "mbo": 2915,
      "there": 2916,
      "getMessage": 2917,
      "ESS": 2918,
      "Account": 2919,
      "SELECT": 2920,
      "LZMA": 2921,
      "BUT": 2922,
      "Vector": 2923,
      "full": 2924,
      "mir": 2925,
      "target": 2926,
      "andbox": 2927,
      "returns": 2928,
      "type_": 2929,
      "comment": 2930,
      "python": 2931,
      "stringWith": 2932,
      "Anagrafe": 2933,
      "height": 2934,
      "########################################": 2935,
      "assembler": 2936,
      ")(": 2937,
      "CP": 2938,
      "IV": 2939,
      "TWA": 2940,
      "fs_": 2941,
      "float": 2942,
      "mapper": 2943,
      "nt_": 2944,
      "remove": 2945,
      "=\"--": 2946,
      "0x02": 2947,
      "igh": 2948,
      "upload": 2949,
      "response": 2950,
      "SOFTWA": 2951,
      "SOFTWARE": 2952,
      "Boo": 2953,
      "Software": 2954,
      "ade": 2955,
      "ci": 2956,
      "fn": 2957,
      "mal": 2958,
      "Read": 2959,
      "ENTS": 2960,
      "Function": 2961,
      "Boolean": 2962,
      "Dat": 2963,
      "GR": 2964,
      "Pa": 2965,
      "Ret": 2966,
      "RAN": 2967,
      "_TAB": 2968,
      "page": 2969,
      "tmp": 2970,
      "ene": 2971,
      "thread": 2972,
      "0x6": 2973,
      "extend": 2974,
      "Enc_": 2975,
      "_desc": 2976,
      "mv_errty": 2977,
      "structure": 2978,
      "p_test": 2979,
      "stmnt_": 2980,
      "Debugger": 2981,
      "Price": 2982,
      "INDEX": 2983,
      "NULL": 2984,
      "56": 2985,
      "Ab": 2986,
      "MASK": 2987,
      "On": 2988,
      "Public": 2989,
      "You": 2990,
      "_in": 2991,
      "gle": 2992,
      "rd": 2993,
      "vid": 2994,
      "ones": 2995,
      "entity": 2996,
      "contratto": 2997,
      "ENDCASE": 2998,
      "notice": 2999,
      "Stubs": 3000,
      "lient": 3001,
      "i_log_level": 3002,
      "arm_": 3003,
      "database": 3004,
      "Direct": 3005,
      "'\"": 3006,
      "80": 3007,
      "cy": 3008,
      "ound": 3009,
      "ump": 3010,
      "房间": 3011,
      "ilt": 3012,
      "0x01": 3013,
      "previous": 3014,
      "Param": 3015,
      "ULT": 3016,
      "As": 3017,
      "Is": 3018,
      "It": 3019,
      "ZCL_": 3020,
      "cus": 3021,
      "war": 3022,
      "door": 3023,
      "pers": 3024,
      "rowser": 3025,
      "_OBJECT": 3026,
      "genStubs": 3027,
      "exporting": 3028,
      "Hash": 3029,
      "RGB": 3030,
      "Table": 3031,
      "_K": 3032,
      "inform": 3033,
      "see": 3034,
      "iled": 3035,
      "query": 3036,
      "DATE": 3037,
      "2004": 3038,
      "need": 3039,
      "year": 3040,
      "_smoke_factory": 3041,
      "fs_data_output": 3042,
      "Class": 3043,
      "Ke": 3044,
      "UB": 3045,
      "clock": 3046,
      "dev": 3047,
      "ALL": 3048,
      "API": 3049,
      "Animation": 3050,
      "COMM": 3051,
      "DB_": 3052,
      "Fac": 3053,
      "SION": 3054,
      "da": 3055,
      "nil": 3056,
      "tal": 3057,
      "seg": 3058,
      "leave": 3059,
      "exd": 3060,
      "asso": 3061,
      "document": 3062,
      "stringWithFormat": 3063,
      "Facade": 3064,
      "Path": 3065,
      "bile": 3066,
      "gu": 3067,
      "kind": 3068,
      "ypes": 3069,
      "atom": 3070,
      "tim": 3071,
      "_score": 3072,
      "bytes": 3073,
      "scan_": 3074,
      "indent": 3075,
      "FIELD": 3076,
      "////////////////////////////////": 3077,
      "IUserModel": 3078,
      "MAP_": 3079,
      "SPECIAL": 3080,
      "_CLASS": 3081,
      "op1": 3082,
      "sum": 3083,
      "ener": 3084,
      "if_": 3085,
      "getRemote": 3086,
      "mobile": 3087,
      "ING_": 3088,
      "'./": 3089,
      "Reconnection": 3090,
      "like": 3091,
      "CHANG": 3092,
      "EVENT": 3093,
      "zional": 3094,
      "2_": 3095,
      "MB": 3096,
      "_data": 3097,
      "same": 3098,
      "------": 3099,
      "enders": 3100,
      "verify": 3101,
      "provi": 3102,
      "finished": 3103,
      "println": 3104,
      "ition9": 3105,
      "TennisGame2": 3106,
      "transition9": 3107,
      "exists": 3108,
      "derived": 3109,
      "TEST_": 3110,
      "Brad": 3111,
      "Pre": 3112,
      "VATE": 3113,
      "ja": 3114,
      "p4": 3115,
      "ATH": 3116,
      "0x1": 3117,
      "LIAB": 3118,
      "Form": 3119,
      "account": 3120,
      "annotations": 3121,
      "_clean": 3122,
      "lcl_Test": 3123,
      "COMPON": 3124,
      "345": 3125,
      "INTERNAL_ERROR": 3126,
      "Key": 3127,
      "<=": 3128,
      "EOF": 3129,
      "FTC": 3130,
      "Jor": 3131,
      "Knight": 3132,
      "Mult": 3133,
      "SQ": 3134,
      "salv_": 3135,
      "itch": 3136,
      "ENTE": 3137,
      "ALLOW": 3138,
      "lv_statement": 3139,
      "termin": 3140,
      "winmobile": 3141,
      "VERSION": 3142,
      "contents": 3143,
      "regist": 3144,
      "zsKnight": 3145,
      "PRIVATE": 3146,
      "struction": 3147,
      "obtain": 3148,
      "enderson": 3149,
      "AY": 3150,
      "_chair": 3151,
      "vl": 3152,
      "your": 3153,
      "release": 3154,
      "anagrafe": 3155,
      "///": 3156,
      "utable": 3157,
      "extra": 3158,
      "ression": 3159,
      "very": 3160,
      "built": 3161,
      "ERT": 3162,
      "ENDLOOP": 3163,
      "make": 3164,
      "2000": 3165,
      "NOTH": 3166,
      "UTENTE": 3167,
      "TESTS": 3168,
      "bits": 3169,
      "TennisGame3": 3170,
      "wordcode": 3171,
      "Found": 3172,
      "PARAMETER_ERROR": 3173,
      "abcOP_": 3174,
      "ALLOWED": 3175,
      "CAT": 3176,
      "CTED": 3177,
      "OBJECT": 3178,
      "Temp": 3179,
      "gty_": 3180,
      "lang": 3181,
      "ero": 3182,
      "getprop": 3183,
      "lv_code": 3184,
      "been": 3185,
      "_di": 3186,
      "/*!": 3187,
      "VER_NO": 3188,
      "DOC_VER_NO": 3189,
      "-*-": 3190,
      "wdmir": 3191,
      "NOT_ALLOWED": 3192,
      "EndPoint": 3193,
      "multi": 3194,
      "View": 3195,
      "DOC_VAR_ID": 3196,
      "AUTHORIZ": 3197,
      "getRemoteEndPoint": 3198,
      "34567": 3199,
      "><": 3200,
      "Names": 3201,
      "_builder": 3202,
      "cate": 3203,
      "csv": 3204,
      "custom": 3205,
      "sandbox": 3206,
      "zz": 3207,
      "ing_": 3208,
      "uration": 3209,
      "prog": 3210,
      "Stream": 3211,
      "_tab": 3212,
      "Load": 3213,
      "prite": 3214,
      "_day": 3215,
      "screen": 3216,
      "it_tokens": 3217,
      "ERROR_K": 3218,
      "logicHas": 3219,
      "container": 3220,
      "events": 3221,
      "NOT_AUTHORIZ": 3222,
      "sb_linux_": 3223,
      "RUCT": 3224,
      "definition": 3225,
      "URRENT_": 3226,
      "eduler": 3227,
      "LLV": 3228,
      "ING_FOUND": 3229,
      "NOTHING_FOUND": 3230,
      "ERROR_KPRO": 3231,
      "NOT_AUTHORIZED": 3232,
      "AZ": 3233,
      "Bit": 3234,
      "each": 3235,
      "oper": 3236,
      "stit": 3237,
      "cover": 3238,
      "ices": 3239,
      "Deuce": 3240,
      "SYMB": 3241,
      "Parameter": 3242,
      "TennisGame1": 3243,
      "cause": 3244,
      "Word": 3245,
      "binary": 3246,
      ".#..#.": 3247,
      "SYMBOL": 3248,
      "_com": 3249,
      "ams": 3250,
      "hold": 3251,
      "space": 3252,
      "way": 3253,
      "ormal": 3254,
      "entry": 3255,
      "add_": 3256,
      "p1Name": 3257,
      "p2Name": 3258,
      "where": 3259,
      "abap_bool": 3260,
      "subject": 3261,
      "refer": 3262,
      "exceptions": 3263,
      "switch": 3264,
      "performance_factory": 3265,
      "Connection": 3266,
      "stmnt_type": 3267,
      "A_": 3268,
      "Be": 3269,
      "FR": 3270,
      "IChairModel": 3271,
      "VEL": 3272,
      "cat": 3273,
      "pid": 3274,
      "medi": 3275,
      "()))": 3276,
      "LEVEL": 3277,
      "playerName": 3278,
      "strings": 3279,
      "DEFA": 3280,
      "DOC_ID": 3281,
      "_function": 3282,
      "Suite": 3283,
      "ELSEIF": 3284,
      "stderr": 3285,
      "zionalita": 3286,
      "24": 3287,
      "Qu": 3288,
      "ccess": 3289,
      "ph": 3290,
      "ruolo": 3291,
      "};": 3292,
      "ilter": 3293,
      "stract": 3294,
      "html": 3295,
      "ECK": 3296,
      "keys": 3297,
      "osr": 3298,
      "CONCAT": 3299,
      "Token": 3300,
      "lib": 3301,
      "CHECK": 3302,
      "0x0000": 3303,
      "instanceof": 3304,
      "Work": 3305,
      "solaris": 3306,
      "register": 3307,
      "CMemory": 3308,
      "DR": 3309,
      "Mule": 3310,
      "ground": 3311,
      "lc": 3312,
      "tected": 3313,
      "esforce": 3314,
      "alesforce": 3315,
      "()[": 3316,
      "nome": 3317,
      "ORY": 3318,
      "objects": 3319,
      "Contratto": 3320,
      "ByDdz": 3321,
      "104": 3322,
      "AllScores": 3323,
      "MAIL": 3324,
      "FUNC": 3325,
      "requi": 3326,
      "WRITE_": 3327,
      "WARRAN": 3328,
      "Document": 3329,
      "op1e_": 3330,
      "COMPONENTS": 3331,
      "345678": 3332,
      "*(": 3333,
      "Case": 3334,
      "Flag": 3335,
      "\\\\": 3336,
      "gc_": 3337,
      "won": 3338,
      "rec": 3339,
      "of_": 3340,
      "class_": 3341,
      "DED": 3342,
      "DELE": 3343,
      "Logger": 3344,
      "ants": 3345,
      "BUIL": 3346,
      "Change": 3347,
      "startswith": 3348,
      "-(": 3349,
      "Air": 3350,
      "DAVMFEATURE": 3351,
      "kst": 3352,
      "sil": 3353,
      "xstring": 3354,
      "_found": 3355,
      "prob": 3356,
      "DATAB": 3357,
      "_OID": 3358,
      "_OBJECT_INFO": 3359,
      "ample": 3360,
      "compile_generic": 3361,
      ".##.": 3362,
      "silent": 3363,
      "DATABASE": 3364,
      "IX": 3365,
      "clear": 3366,
      "know": 3367,
      "tt": 3368,
      "lave": 3369,
      "getInstance": 3370,
      "forge": 3371,
      "_failure": 3372,
      "FREResult": 3373,
      "FRE_OK": 3374,
      "vikst": 3375,
      "it_statements": 3376,
      "ill_": 3377,
      "ives": 3378,
      "sourceforge": 3379,
      "ixel": 3380,
      "ifier": 3381,
      "Level": 3382,
      "CLEAR": 3383,
      "lobal": 3384,
      "viksti": 3385,
      "2D": 3386,
      ">.": 3387,
      "BS": 3388,
      "C4": 3389,
      "Client": 3390,
      "IRoomModel": 3391,
      "Nod": 3392,
      "_attributes": 3393,
      "dest": 3394,
      "fval": 3395,
      "2005": 3396,
      "Prob": 3397,
      "neviksti": 3398,
      "_BIT_": 3399,
      "DSP4_": 3400,
      "ntlm": 3401,
      "Update": 3402,
      "Nodes": 3403,
      "\"'": 3404,
      "#(": 3405,
      "FX": 3406,
      "GSU": 3407,
      "junit": 3408,
      "rel": 3409,
      "ed_": 3410,
      "keep": 3411,
      "_tree": 3412,
      "ARG": 3413,
      "Parse": 3414,
      "Wrapper": 3415,
      "Alloc": 3416,
      "engine": 3417,
      "variable": 3418,
      "Verify": 3419,
      "Color": 3420,
      "!!": 3421,
      "Block": 3422,
      "HE": 3423,
      "Max": 3424,
      "Per": 3425,
      "Tra": 3426,
      "mule": 3427,
      "inline": 3428,
      "cop": 3429,
      "typ": 3430,
      "convert": 3431,
      "buf": 3432,
      "lv_c": 3433,
      "term": 3434,
      "raw": 3435,
      "2009": 3436,
      "context": 3437,
      "--------------------------------------------------------------------------------": 3438,
      "GET": 3439,
      "parseInt": 3440,
      "bool8": 3441,
      "SYSTEM_": 3442,
      "directory": 3443,
      "ltcl_": 3444,
      "slavename": 3445,
      "view_y": 3446,
      "Script": 3447,
      "Return": 3448,
      "GI": 3449,
      "Java": 3450,
      "MATCH": 3451,
      "SD": 3452,
      "lection": 3453,
      "ifdef": 3454,
      "resol": 3455,
      "LException": 3456,
      "Cos": 3457,
      "qui": 3458,
      "NET": 3459,
      "signal": 3460,
      "contentXml": 3461,
      "failure": 3462,
      "Checks": 3463,
      "execute": 3464,
      "Handler": 3465,
      "cases": 3466,
      "SQLException": 3467,
      "F_": 3468,
      "FINAL": 3469,
      "IR": 3470,
      "dump": 3471,
      "mass": 3472,
      "pattern": 3473,
      "rt_": 3474,
      "ions": 3475,
      "look": 3476,
      "getName": 3477,
      "0x5": 3478,
      "pointer": 3479,
      "EXIT": 3480,
      "Encoding": 3481,
      "ToSet": 3482,
      "down": 3483,
      "BuildFactory": 3484,
      "filename": 3485,
      "PROTE": 3486,
      "MAtom": 3487,
      ".#.#.": 3488,
      ":@\"%@": 3489,
      "Implement": 3490,
      "Database": 3491,
      "LLVMAtom": 3492,
      "./": 3493,
      "=[": 3494,
      "CATCH": 3495,
      "Option": 3496,
      "Sap": 3497,
      "ake": 3498,
      "dif": 3499,
      "ove": 3500,
      "rs": 3501,
      "spa": 3502,
      "att": 3503,
      "testName": 3504,
      "There": 3505,
      "_salv_": 3506,
      "annotation_": 3507,
      "AVMSYSTEM_": 3508,
      "arguments": 3509,
      "UPDATES": 3510,
      "help": 3511,
      "DER": 3512,
      "Done": 3513,
      "Nint": 3514,
      "SZ": 3515,
      "[[\"": 3516,
      "dk": 3517,
      "group": 3518,
      "just": 3519,
      "ana": 3520,
      "ella": 3521,
      "endo": 3522,
      "mozilla": 3523,
      "permission": 3524,
      "logg": 3525,
      "cl_salv_": 3526,
      "pair": 3527,
      "modify": 3528,
      "ATIONS": 3529,
      "Socket": 3530,
      "oogle": 3531,
      "OpenChecks": 3532,
      "windows_64_": 3533,
      "multip": 3534,
      "WRON": 3535,
      "abapOpenChecks": 3536,
      "AutoMatch": 3537,
      "CHANGING": 3538,
      "provided": 3539,
      "ltcl_test": 3540,
      "PROTECTED": 3541,
      "Nintendo": 3542,
      "'],": 3543,
      "'])": 3544,
      "MI": 3545,
      "QU": 3546,
      "Red": 3547,
      "Salesforce": 3548,
      "b_": 3549,
      "g_": 3550,
      "gate": 3551,
      "mt": 3552,
      "rece": 3553,
      "rol": 3554,
      "THREAD": 3555,
      "izi": 3556,
      "Product": 3557,
      "subprocess": 3558,
      "get_message": 3559,
      "S9xGet": 3560,
      "555": 3561,
      "poly_": 3562,
      "Pai": 3563,
      "13": 3564,
      "20": 3565,
      "GTH": 3566,
      "GER": 3567,
      "LATIONS": 3568,
      "email": 3569,
      "save": 3570,
      "ton": 3571,
      "ush": 3572,
      "ENATE": 3573,
      "protected": 3574,
      "builders": 3575,
      "builddir": 3576,
      "usr": 3577,
      "Property": 3578,
      "ready": 3579,
      "util_": 3580,
      "functions": 3581,
      "ification": 3582,
      "WaitReconnection": 3583,
      "mark": 3584,
      "LENGTH": 3585,
      "LISH": 3586,
      "internal_": 3587,
      "categ": 3588,
      "CONCATENATE": 3589,
      "-+": 3590,
      ".*": 3591,
      "71": 3592,
      "DIS": 3593,
      "NON": 3594,
      "_De": 3595,
      "aive": 3596,
      "browser": 3597,
      "cp": 3598,
      "gl": 3599,
      "og": 3600,
      "sig": 3601,
      "scores": 3602,
      "enum": 3603,
      "stop": 3604,
      "stream": 3605,
      "eter": 3606,
      "expr": 3607,
      "getString": 3608,
      "getText": 3609,
      "commercial": 3610,
      "logfile": 3611,
      "CONVER": 3612,
      "failed": 3613,
      "utils": 3614,
      "zcl_aap_": 3615,
      "FRE_WRON": 3616,
      "changing": 3617,
      "CONTENT": 3618,
      "io_": 3619,
      "trace": 3620,
      "STATIC": 3621,
      "G_THREAD": 3622,
      "conditions": 3623,
      "Player": 3624,
      "builtin": 3625,
      "internal_error": 3626,
      "_Demo_": 3627,
      "FRE_WRONG_THREAD": 3628,
      "'--": 3629,
      "17": 3630,
      "2345678": 3631,
      "CPU": 3632,
      "LOR": 3633,
      "_qq": 3634,
      "ds": 3635,
      "fi": 3636,
      "hal": 3637,
      "jit": 3638,
      "plat": 3639,
      "tx": 3640,
      "ater": 3641,
      "ates": 3642,
      "encode": 3643,
      "cook": 3644,
      "above": 3645,
      "for_": 3646,
      "THUB": 3647,
      "Invo": 3648,
      "(\"<": 3649,
      "terms": 3650,
      "STRUCT": 3651,
      "reps": 3652,
      "MAX": 3653,
      "'''": 3654,
      "https": 3655,
      "ServerAction": 3656,
      "PUBLISH": 3657,
      "fields": 3658,
      "DOCUMENTATION": 3659,
      "DOCUMENT_": 3660,
      "Channel": 3661,
      "CX_O": 3662,
      "CLzmaEnc": 3663,
      "BOOL": 3664,
      "521266750_qq": 3665,
      "multiplayer": 3666,
      "_BIT_MASK": 3667,
      "--------------------------------------------------------------------------------------": 3668,
      "GITHUB": 3669,
      "massive": 3670,
      "521266750_qq_com": 3671,
      "PC": 3672,
      "SB": 3673,
      "day": 3674,
      "host": 3675,
      "ib": 3676,
      "saction": 3677,
      "insert": 3678,
      "than": 3679,
      "alive": 3680,
      "estamp": 3681,
      "example": 3682,
      "()));": 3683,
      "andom": 3684,
      "shar": 3685,
      "SET": 3686,
      "Select": 3687,
      "attrname": 3688,
      "ChildNodes": 3689,
      "stitial": 3690,
      "reference": 3691,
      "wonPoint": 3692,
      "\"%": 3693,
      "'+": 3694,
      "'<": 3695,
      "04": 3696,
      "09": 3697,
      "AA": 3698,
      "Gary": 3699,
      "Henderson": 3700,
      "WIN": 3701,
      "_obj": 3702,
      "ren": 3703,
      "env_": 3704,
      "RELATIONS": 3705,
      "ments": 3706,
      "UserSession": 3707,
      "10_": 3708,
      "TABLE_": 3709,
      "clude": 3710,
      "func": 3711,
      "logicGet": 3712,
      "avmshell_s": 3713,
      "Args": 3714,
      "json": 3715,
      "zcl_aoc_check_": 3716,
      "implements": 3717,
      "allowed": 3718,
      "INCLUDING": 3719,
      "associ": 3720,
      "\"];": 3721,
      "/.": 3722,
      "Turn": 3723,
      "]\",": 3724,
      "_args": 3725,
      "bas": 3726,
      "did": 3727,
      "sa": 3728,
      "symbo": 3729,
      "rag": 3730,
      "player1Score": 3731,
      "player2Score": 3732,
      "zcl_cell": 3733,
      "CODE": 3734,
      "AVA": 3735,
      "FRE_TYPE": 3736,
      "headers": 3737,
      "SPON": 3738,
      "called": 3739,
      ".###.": 3740,
      "slaves": 3741,
      "TIMEOUT": 3742,
      "FAIL": 3743,
      "get_message_text": 3744,
      "'-": 3745,
      "OO": 3746,
      "]);": 3747,
      "_N": 3748,
      "hs": 3749,
      "uol": 3750,
      "zones": 3751,
      "abstract": 3752,
      "_float": 3753,
      "Instr": 3754,
      "shape": 3755,
      "APU": 3756,
      "Resource": 3757,
      "scripts": 3758,
      "Util": 3759,
      "unit_test": 3760,
      "TBXMLElement": 3761,
      "SPC": 3762,
      "zcl_aoc_unit_test": 3763,
      "defined": 3764,
      "FILE_": 3765,
      "SPECIAL_OBJECT_INFO": 3766,
      "Multi": 3767,
      "DEFAULT": 3768,
      "resolver": 3769,
      "ISE": 3770,
      "Not": 3771,
      "OID": 3772,
      "One": 3773,
      "V_": 3774,
      "ipe": 3775,
      "js_": 3776,
      "ming": 3777,
      "m_score": 3778,
      "ato": 3779,
      "deo": 3780,
      "det": 3781,
      "ank": 3782,
      "cost": 3783,
      "world": 3784,
      "RAISE": 3785,
      "creen": 3786,
      "States": 3787,
      "scheduler": 3788,
      "information": 3789,
      "SYMBOLS": 3790,
      "logging": 3791,
      "uoli": 3792,
      "-=": 3793,
      "GL_": 3794,
      "Limit": 3795,
      "Y_": 3796,
      "_1": 3797,
      "_processor": 3798,
      "fl": 3799,
      "pixel": 3800,
      "sdk": 3801,
      "ese": 3802,
      "ension": 3803,
      "getBool": 3804,
      "ofs": 3805,
      "Ref": 3806,
      "quest": 3807,
      "Bytes": 3808,
      "access": 3809,
      "posit": 3810,
      "new_object_key": 3811,
      "Created": 3812,
      "_descr": 3813,
      "devclass": 3814,
      "Jorsch": 3815,
      "langu": 3816,
      "DELETE": 3817,
      "\"/": 3818,
      "C1": 3819,
      "CURRENT_": 3820,
      "JAVA": 3821,
      "Sin": 3822,
      "_read": 3823,
      "amo": 3824,
      "ek": 3825,
      "support": 3826,
      "instr": 3827,
      "ingle": 3828,
      "probs": 3829,
      ")).": 3830,
      "Exec": 3831,
      "Local": 3832,
      "BDS_": 3833,
      "i_exit": 3834,
      "mac64": 3835,
      "descriptionDone": 3836,
      "MOD": 3837,
      "clock_": 3838,
      "CONVERTER": 3839,
      "'',": 3840,
      "30": 3841,
      "></": 3842,
      "GTEST_": 3843,
      "HQ": 3844,
      "Hel": 3845,
      "IO": 3846,
      "Iter": 3847,
      "Lvl": 3848,
      "MIT": 3849,
      "OLO": 3850,
      "TP": 3851,
      "don": 3852,
      "ges": 3853,
      "hav": 3854,
      "kw": 3855,
      "ky": 3856,
      "qi": 3857,
      "ange": 3858,
      "RESS": 3859,
      "nothing": 3860,
      "resource": 3861,
      "TYPES": 3862,
      "=\"../": 3863,
      "'../": 3864,
      "_tg": 3865,
      "Look": 3866,
      "socket": 3867,
      "UTF": 3868,
      "++;": 3869,
      "new_classname": 3870,
      "new_client": 3871,
      "new_classtype": 3872,
      "Access": 3873,
      "Double": 3874,
      "FILES": 3875,
      "empty": 3876,
      "DB_DATA": 3877,
      "copies": 3878,
      "half": 3879,
      ";;": 3880,
      "={'": 3881,
      "Google": 3882,
      "MAP": 3883,
      "S_OBJECT_": 3884,
      "TASK": 3885,
      "p_sub": 3886,
      "rent": 3887,
      "turn": 3888,
      "wo": 3889,
      "left": 3890,
      "getM": 3891,
      "_fd": 3892,
      "_from": 3893,
      "returning": 3894,
      "objectname": 3895,
      "DEBU": 3896,
      "Exceptions": 3897,
      "ctionary": 3898,
      "NSArray": 3899,
      "funky": 3900,
      "zsnes": 3901,
      "mt_code": 3902,
      "Create": 3903,
      "reason": 3904,
      "Initializer": 3905,
      "pagefault": 3906,
      "associated": 3907,
      "p_sub_obj": 3908,
      "funkyass": 3909,
      "(&": 3910,
      "31": 3911,
      "=?": 3912,
      "AO": 3913,
      "Mana": 3914,
      "Range": 3915,
      "Use": 3916,
      "_j": 3917,
      "_time": 3918,
      "_index": 3919,
      "a_": 3920,
      "cache": 3921,
      "effect": 3922,
      "sl": 3923,
      "snes9x": 3924,
      "sitDown": 3925,
      "master": 3926,
      "ART": 3927,
      "sole": 3928,
      "ENTRI": 3929,
      "_dir": 3930,
      "Config": 3931,
      "price": 3932,
      "report": 3933,
      "_MASK": 3934,
      "debugger": 3935,
      "Box": 3936,
      "RunAnd": 3937,
      "RUOLO": 3938,
      "_fields": 3939,
      "Callback": 3940,
      "distributed": 3941,
      "int32_t": 3942,
      "Output": 3943,
      "windows_64_deep_factory": 3944,
      "Manager": 3945,
      "ENTRIES": 3946,
      "GIN": 3947,
      "OS_": 3948,
      "[-": 3949,
      "bc": 3950,
      "free": 3951,
      "gtest": 3952,
      "ior": 3953,
      "ances": 3954,
      "itle": 3955,
      "eder": 3956,
      "idAzienda": 3957,
      "ate_": 3958,
      "verbo": 3959,
      "params": 3960,
      "Remove": 3961,
      "Request": 3962,
      "_dis": 3963,
      "checkAllScores": 3964,
      "running": 3965,
      "writer": 3966,
      "annotations_": 3967,
      "Window": 3968,
      "XMLString": 3969,
      "XmlDocument": 3970,
      "uint8_t": 3971,
      "TRAN": 3972,
      "Mozilla": 3973,
      "BEGIN": 3974,
      "LZMA_": 3975,
      "pository": 3976,
      "verbose": 3977,
      "*'": 3978,
      "06": 3979,
      "Equal": 3980,
      "HI": 3981,
      "Single": 3982,
      "Uns": 3983,
      "]['": 3984,
      "_64": 3985,
      "_of_": 3986,
      "ele": 3987,
      "fd": 3988,
      "high": 3989,
      "task": 3990,
      "})": 3991,
      "coun": 3992,
      "proto": 3993,
      "URIS": 3994,
      "(((": 3995,
      "ached": 3996,
      "MSGTY": 3997,
      "aoc_f": 3998,
      "minus": 3999,
      "ceptor": 4000,
      "Display": 4001,
      "repourl": 4002,
      "mac_intel_105": 4003,
      "zzaoc_f": 4004,
      "platform": 4005,
      "zzaoc_fill_": 4006,
      ".####": 4007,
      "ACTION": 4008,
      "Mod": 4009,
      "SI": 4010,
      "TG": 4011,
      "bet": 4012,
      "cwd": 4013,
      "gc": 4014,
      "lx_": 4015,
      "lr_": 4016,
      "pub": 4017,
      "tax": 4018,
      "ult_": 4019,
      "RED_": 4020,
      "_false": 4021,
      "defs": 4022,
      "ASSERT": 4023,
      "ID_OBJECT": 4024,
      "ignore": 4025,
      "avail": 4026,
      "MSGID": 4027,
      "MSGNO": 4028,
      "exitcode": 4029,
      "failures": 4030,
      "HTTP": 4031,
      "abap_false": 4032,
      "Current": 4033,
      "roller": 4034,
      "FRE_INVALID_OBJECT": 4035,
      "COMMFILE_": 4036,
      "AirMethod": 4037,
      "COMMFILE_ENTRIES": 4038,
      ".\");": 4039,
      "Dir": 4040,
      "Pass": 4041,
      "VC": 4042,
      "_round": 4043,
      "f_": 4044,
      "mare": 4045,
      "sort": 4046,
      "INUE": 4047,
      "total": 4048,
      "ENDFORM": 4049,
      "extension": 4050,
      "lv_include": 4051,
      "LED_": 4052,
      "ARD": 4053,
      "p1N": 4054,
      "control": 4055,
      "Enter": 4056,
      "thrown": 4057,
      "lied": 4058,
      "starting": 4059,
      "crement": 4060,
      "including": 4061,
      "NEW_OBJECT_": 4062,
      "region": 4063,
      "lates": 4064,
      "\"-\"": 4065,
      "Final": 4066,
      "MSGV1": 4067,
      "MSGV2": 4068,
      "MSGV3": 4069,
      "MSGV4": 4070,
      "CONTINUE": 4071,
      "ources": 4072,
      "ChartboostWrapper": 4073,
      "single": 4074,
      "person": 4075,
      "winmobile_": 4076,
      "FUNCNAME": 4077,
      "WARRANTIES": 4078,
      "HEAD": 4079,
      "SDK": 4080,
      "cookie": 4081,
      "amount": 4082,
      "Unsupported": 4083,
      "minusResult": 4084,
      "3_": 4085,
      "DAM": 4086,
      "Full": 4087,
      "My": 4088,
      "Mar": 4089,
      "_version": 4090,
      "every": 4091,
      "gv_": 4092,
      "present": 4093,
      "vs": 4094,
      "wn": 4095,
      "wi_": 4096,
      "inal": 4097,
      "animation": 4098,
      "them": 4099,
      "ressed": 4100,
      "ends": 4101,
      "ENDTRY": 4102,
      "setprop": 4103,
      "ToS": 4104,
      "UMENT": 4105,
      "discus": 4106,
      "ty_byte": 4107,
      "Argument": 4108,
      "memory": 4109,
      "implementation": 4110,
      "Content": 4111,
      "Foundation": 4112,
      "Bitmap": 4113,
      "ARGUMENT": 4114,
      "STRUCTURE": 4115,
      "getBoolArg": 4116,
      "havior": 4117,
      "halfmo": 4118,
      "Finalizer": 4119,
      "discussion": 4120,
      "GAME": 4121,
      "Next": 4122,
      "PUT": 4123,
      "_path": 4124,
      "df": 4125,
      "frame": 4126,
      "global": 4127,
      "ses": 4128,
      "ta": 4129,
      "tion": 4130,
      "***": 4131,
      "###": 4132,
      "lete": 4133,
      "002": 4134,
      "TYP_": 4135,
      "strlen": 4136,
      "parc": 4137,
      "actor": 4138,
      "actual": 4139,
      "Exp": 4140,
      "ARM": 4141,
      "TestCase": 4142,
      "lenTest": 4143,
      "Process": 4144,
      "test_utils": 4145,
      "LIED": 4146,
      "Commercial": 4147,
      "tempScore": 4148,
      "S9xSet": 4149,
      "Dict": 4150,
      "DIR": 4151,
      "ID_ARGUMENT": 4152,
      "FRE_INVALID_ARGUMENT": 4153,
      "Head": 4154,
      "Query": 4155,
      "category": 4156,
      "_display": 4157,
      "zzaoc_fill_att": 4158,
      "NEW_OBJECT_KEY": 4159,
      ":]": 4160,
      "Bus": 4161,
      "Cal": 4162,
      "HER": 4163,
      "Spec": 4164,
      "Types": 4165,
      "_D": 4166,
      "c_ftpost": 4167,
      "ga": 4168,
      "hi": 4169,
      "hr": 4170,
      "sure": 4171,
      "ume": 4172,
      "invo": 4173,
      "ord": 4174,
      "illeg": 4175,
      "chr": 4176,
      "INHER": 4177,
      "RESPON": 4178,
      "parser": 4179,
      "build_": 4180,
      "address": 4181,
      "Exten": 4182,
      "Post": 4183,
      "classes": 4184,
      "Console": 4185,
      "test_cases": 4186,
      "CONST": 4187,
      "IMPLIED": 4188,
      "ITING": 4189,
      "COLOR": 4190,
      "child_fd": 4191,
      "LOG_": 4192,
      "expectedScore": 4193,
      "syntax": 4194,
      "NEW_CLIENT": 4195,
      "NEW_CLASSNAME": 4196,
      "NEW_CLASSTYPE": 4197,
      "black": 4198,
      "dyn": 4199,
      "INCLUDE": 4200,
      "ANTS": 4201,
      "timestamp": 4202,
      "_dict": 4203,
      "DEBUG": 4204,
      "available": 4205,
      "ToSitDownStatus": 4206,
      "INHERITING": 4207,
      ",\"": 4208,
      ">\"": 4209,
      ">\");": 4210,
      "PIX": 4211,
      "_with": 4212,
      "_RGB": 4213,
      "btr": 4214,
      "eq": 4215,
      "mapp": 4216,
      "{}": 4217,
      "getAttribute": 4218,
      "ORIG": 4219,
      "andard": 4220,
      "TYP": 4221,
      "_filter": 4222,
      "cli": 4223,
      "click": 4224,
      "(\"/": 4225,
      "rais": 4226,
      "2007": 4227,
      "GetString": 4228,
      "process_clean": 4229,
      "writ": 4230,
      "wrbtr": 4231,
      "suite": 4232,
      "http_": 4233,
      "cale": 4234,
      "LOGGER": 4235,
      "wdqi": 4236,
      "DebugDebugger": 4237,
      "windows_deep_factory": 4238,
      "environment": 4239,
      "Funzionalita": 4240,
      "arry": 4241,
      "view_x": 4242,
      "stead": 4243,
      "atomic": 4244,
      "known": 4245,
      "Trace": 4246,
      "Options": 4247,
      "util_process_clean": 4248,
      "txt": 4249,
      "CX_OS_OBJECT_": 4250,
      "FAILURE": 4251,
      "SinA": 4252,
      "illegal_": 4253,
      "ORIGINAL": 4254,
      "wdqipai": 4255,
      "+=\"": 4256,
      "CDATA": 4257,
      "Nom": 4258,
      "ner": 4259,
      "oc": 4260,
      "r_date": 4261,
      "atures": 4262,
      "sex": 4263,
      "also": 4264,
      "exclude": 4265,
      "ident": 4266,
      "StrIpPort": 4267,
      "reset": 4268,
      "pare": 4269,
      "argc": 4270,
      "type_float": 4271,
      "playground": 4272,
      "_sql": 4273,
      "TestSuite": 4274,
      "p2N": 4275,
      "Buf": 4276,
      "LIMI": 4277,
      "CONN": 4278,
      "AGES": 4279,
      "preprocessor": 4280,
      "prefix": 4281,
      "nego": 4282,
      "curren": 4283,
      "XmlNode": 4284,
      "...',": 4285,
      "srcdir": 4286,
      "goto": 4287,
      "zcx_aap_illegal_": 4288,
      "Assert": 4289,
      "LIABILITY": 4290,
      "///#": 4291,
      "media": 4292,
      "relations": 4293,
      "BitmapData": 4294,
      "CONSTANTS": 4295,
      "LIMITED": 4296,
      "negoti": 4297,
      "\">": 4298,
      "\"):": 4299,
      "#!": 4300,
      "KO": 4301,
      "LY": 4302,
      "More": 4303,
      "RTC": 4304,
      "Sql": 4305,
      "gin": 4306,
      "pexpect": 4307,
      "upt": 4308,
      "esult": 4309,
      "delay": 4310,
      "uture": 4311,
      "api": 4312,
      "ATT": 4313,
      "resh": 4314,
      "ortas": 4315,
      "(\"%": 4316,
      "(\"\"))": 4317,
      "building": 4318,
      "raster": 4319,
      "im_": 4320,
      "Prop": 4321,
      "abap_classname": 4322,
      "RACT": 4323,
      "ople": 4324,
      "posState": 4325,
      "created": 4326,
      "cade": 4327,
      "testr": 4328,
      "gtest_test_utils": 4329,
      "Calls": 4330,
      "''.'.": 4331,
      "_to_": 4332,
      "threads": 4333,
      "scan_stmnt_type": 4334,
      "RunAndVerify": 4335,
      "zcx_aap_illegal_argument": 4336,
      "*'.": 4337,
      "88": 4338,
      ">();": 4339,
      "AI": 4340,
      "After": 4341,
      "Pur": 4342,
      "PM_": 4343,
      "SRA": 4344,
      "Slot": 4345,
      "_check": 4346,
      "best": 4347,
      "mip": 4348,
      "normal": 4349,
      "ote": 4350,
      "instead": 4351,
      "second": 4352,
      "del": 4353,
      "isRep": 4354,
      "ATTO": 4355,
      "clone": 4356,
      "Record": 4357,
      "SET_": 4358,
      "ISMATCH": 4359,
      "CONTR": 4360,
      "success": 4361,
      "Results": 4362,
      "basedir": 4363,
      "_MISMATCH": 4364,
      "authors": 4365,
      "SUB": 4366,
      "tainment": 4367,
      "Tabella": 4368,
      "LzmaDe": 4369,
      "LzmaEnc_": 4370,
      "UTENTE_": 4371,
      "Template": 4372,
      "covered": 4373,
      "FREN": 4374,
      "CosA": 4375,
      "spawn": 4376,
      "FRE_TYPE_MISMATCH": 4377,
      "Entertainment": 4378,
      "Extension": 4379,
      "CONTRATTO": 4380,
      "08": 4381,
      "21": 4382,
      "Failure": 4383,
      "IEND": 4384,
      "Mart": 4385,
      "Sch": 4386,
      "Uint": 4387,
      "Wh": 4388,
      "_ad": 4389,
      "_game": 4390,
      "kLen": 4391,
      "ld_": 4392,
      "pf": 4393,
      "rid": 4394,
      "invalid": 4395,
      "ical": 4396,
      "they": 4397,
      "testdata": 4398,
      "resources": 4399,
      "acters": 4400,
      "ization": 4401,
      "quote": 4402,
      "finish": 4403,
      "x_attrname": 4404,
      "scx_attrname": 4405,
      "lower": 4406,
      "outputCalls": 4407,
      "FIL": 4408,
      "ByChChess": 4409,
      "channel": 4410,
      "alv_grid": 4411,
      "Apps": 4412,
      "\"\\['": 4413,
      "%@\",": 4414,
      "limited": 4415,
      "tagName": 4416,
      "_STATE": 4417,
      "AZIEND": 4418,
      "DAVMFEATURE_": 4419,
      "EncodingException": 4420,
      "Invocation": 4421,
      "UnsupportedEncodingException": 4422,
      "raising": 4423,
      "#!/": 4424,
      "MoreApps": 4425,
      "kLenNum": 4426,
      "Av": 4427,
      "Free": 4428,
      "WE": 4429,
      "_vector": 4430,
      "rAction": 4431,
      "wer": 4432,
      "wl_": 4433,
      "ze": 4434,
      "atives": 4435,
      "standard": 4436,
      "real": 4437,
      "remain": 4438,
      "selftest": 4439,
      "006": 4440,
      "conver": 4441,
      "prod": 4442,
      "sy_": 4443,
      "istent": 4444,
      "s_in_": 4445,
      "(\"'": 4446,
      "facade": 4447,
      "')},": 4448,
      "='\");": 4449,
      "annotationname": 4450,
      "zcl_ntlm": 4451,
      "generate": 4452,
      "branches": 4453,
      "SessionId": 4454,
      "changed": 4455,
      "Acceptor": 4456,
      "specified": 4457,
      "swf": 4458,
      "DSP3_DR": 4459,
      "\",\"\",\"": 4460,
      "initWithPlayer": 4461,
      "holders": 4462,
      "pha": 4463,
      "solaris_s": 4464,
      "kwargs": 4465,
      "testresult": 4466,
      "initWithPlayer1": 4467,
      "');": 4468,
      "Pe": 4469,
      "Py": 4470,
      "PTY": 4471,
      "_b": 4472,
      "_x": 4473,
      "_ac": 4474,
      "_match": 4475,
      "dproperties": 4476,
      "earch": 4477,
      "gn": 4478,
      "her": 4479,
      "hot": 4480,
      "klass": 4481,
      "pla": 4482,
      "want": 4483,
      "dead": 4484,
      "inte": 4485,
      "lost": 4486,
      "toint": 4487,
      "research": 4488,
      "cls": 4489,
      "LESS": 4490,
      "bound": 4491,
      "addCallback": 4492,
      "begin": 4493,
      "EXT": 4494,
      "imer": 4495,
      "world_": 4496,
      "error_": 4497,
      "prepare": 4498,
      "ages": 4499,
      "calls": 4500,
      "MAX_": 4501,
      "matnr": 4502,
      "features": 4503,
      "disable": 4504,
      "See": 4505,
      "'\\]\",": 4506,
      "_fieldcat": 4507,
      "GUI": 4508,
      ":@\"%@-": 4509,
      "shared": 4510,
      "js_print": 4511,
      "LzmaDec_": 4512,
      ",'": 4513,
      "GAL": 4514,
      "Gener": 4515,
      "JDO": 4516,
      "PORT": 4517,
      "RIS": 4518,
      "VE_": 4519,
      "_string": 4520,
      "_line": 4521,
      "cret": 4522,
      "den": 4523,
      "flash": 4524,
      "ix_": 4525,
      "ible": 4526,
      "rs_": 4527,
      "zero": 4528,
      "游戏": 4529,
      "orig": 4530,
      "sequ": 4531,
      "section": 4532,
      "leep": 4533,
      "ift": 4534,
      "interr": 4535,
      "tract": 4536,
      "charg": 4537,
      "ex_": 4538,
      "exce": 4539,
      "project": 4540,
      "MException": 4541,
      "shall": 4542,
      "license": 4543,
      "LEGAL": 4544,
      "******************": 4545,
      "Named": 4546,
      "addition": 4547,
      "uses": 4548,
      "Pop": 4549,
      "START": 4550,
      "Std": 4551,
      "Stamp": 4552,
      "_target": 4553,
      "expression": 4554,
      "Pointer": 4555,
      "errors": 4556,
      "RIBU": 4557,
      "windowsize": 4558,
      "avmshell_d": 4559,
      "props": 4560,
      "ReleaseDebugger": 4561,
      "merge": 4562,
      "searchwindowsize": 4563,
      "**********************************************************************************": 4564,
      "steps": 4565,
      "CXX": 4566,
      "derivatives": 4567,
      "pcc": 4568,
      "c_fc_": 4569,
      "Vars": 4570,
      "documentation": 4571,
      "symbol": 4572,
      "ATTRIBU": 4573,
      "Avail": 4574,
      "JDOMException": 4575,
      "interrupt": 4576,
      "(%": 4577,
      "=@\"": 4578,
      "Bar": 4579,
      "Cy": 4580,
      "DD": 4581,
      "Files": 4582,
      "KI": 4583,
      "MER": 4584,
      "Naive": 4585,
      "PH": 4586,
      "VERE": 4587,
      "bb": 4588,
      "gh": 4589,
      "kill": 4590,
      "oot": 4591,
      "sin": 4592,
      "sprite": 4593,
      "uff": 4594,
      "instruction": 4595,
      "erial": 4596,
      "separ": 4597,
      "remote": 4598,
      "******": 4599,
      "trac": 4600,
      "IND": 4601,
      "aph": 4602,
      "rettypes": 4603,
      "ER_": 4604,
      "Input": 4605,
      "InRoom": 4606,
      "InPlay": 4607,
      "pose": 4608,
      "mak": 4609,
      ")):": 4610,
      "extData": 4611,
      "lv_index": 4612,
      "ummy": 4613,
      "STAND": 4614,
      "items": 4615,
      "characters": 4616,
      "=''": 4617,
      "PROVI": 4618,
      "descr": 4619,
      "message_": 4620,
      "####################################": 4621,
      "Andreas": 4622,
      "1999": 4623,
      "ickName": 4624,
      "compile_builder": 4625,
      "DdzLogic": 4626,
      "cleaned": 4627,
      "orderby": 4628,
      "CLzmaProb": 4629,
      "Move": 4630,
      "WriteStrByException": 4631,
      "_flags": 4632,
      "WRITE_WORD": 4633,
      "getAttributeValue": 4634,
      "STANDARD": 4635,
      "PROVIDED": 4636,
      "$(": 4637,
      ",%": 4638,
      ".'": 4639,
      "=%": 4640,
      "A1": 4641,
      "Ivar": 4642,
      "K_": 4643,
      "Lin": 4644,
      "Make": 4645,
      "Ne": 4646,
      "Pexpect": 4647,
      "US_": 4648,
      "[])": 4649,
      "]]": 4650,
      "_compile_factory": 4651,
      "ale": 4652,
      "dst": 4653,
      "hu": 4654,
      "mary": 4655,
      "sleep": 4656,
      "tree": 4657,
      "cho": 4658,
      "INS": 4659,
      "icon": 4660,
      "added": 4661,
      "ONLY": 4662,
      "provid": 4663,
      "0xf": 4664,
      "correct": 4665,
      "comm": 4666,
      "sets": 4667,
      "SEVERE": 4668,
      "cl_gu": 4669,
      "compressed": 4670,
      "string_table": 4671,
      "ls_data": 4672,
      "printf": 4673,
      "link": 4674,
      "Top": 4675,
      "builderGroup": 4676,
      "roomList": 4677,
      "\"));": 4678,
      "prior": 4679,
      "matchFinder": 4680,
      "baseURL": 4681,
      "ILLEGAL": 4682,
      "mac_deep_factory": 4683,
      "linux_deep_factory": 4684,
      "linux_arm_": 4685,
      "namespace": 4686,
      "FIELD_CONTRATTO": 4687,
      "ICPU": 4688,
      "Video": 4689,
      "paiName": 4690,
      "Prices": 4691,
      "stems": 4692,
      "AccountFrom": 4693,
      "winmobile_emulator": 4694,
      "Header": 4695,
      "People": 4696,
      "hotmail": 4697,
      ")'": 4698,
      "2x": 4699,
      "Clo": 4700,
      "CUL": 4701,
      "Cache": 4702,
      "cent": 4703,
      "ptr": 4704,
      "sent": 4705,
      "zaap_": 4706,
      "indi": 4707,
      "getN": 4708,
      "_frame": 4709,
      "Instruction": 4710,
      "outfile": 4711,
      "AND_": 4712,
      "object_name": 4713,
      "ABC": 4714,
      "IS_": 4715,
      "scene": 4716,
      "FIT": 4717,
      "ipient": 4718,
      "URE_": 4719,
      "workitem": 4720,
      "specific": 4721,
      "================================================================": 4722,
      "distribute": 4723,
      "Print": 4724,
      "getpropx_": 4725,
      "Tokener": 4726,
      "download": 4727,
      "clike": 4728,
      "SRAMM": 4729,
      "\"<": 4730,
      "'*": 4731,
      "({'": 4732,
      ")+": 4733,
      "07": 4734,
      "38": 4735,
      "But": 4736,
      "CY": 4737,
      "DUR": 4738,
      "Emp": 4739,
      "GL": 4740,
      "Pair": 4741,
      "fp": 4742,
      "hex": 4743,
      "less": 4744,
      "rb": 4745,
      "td": 4746,
      "zif_": 4747,
      "ating": 4748,
      "decode": 4749,
      "let": 4750,
      "toXMLString": 4751,
      "about": 4752,
      "idle": 4753,
      "endmethod": 4754,
      "=\"*\"": 4755,
      "pop": 4756,
      "0xFF": 4757,
      "0x03": 4758,
      "omb": 4759,
      "extmodel": 4760,
      "Cost": 4761,
      "setString": 4762,
      "SError": 4763,
      "because": 4764,
      "....": 4765,
      "Encode": 4766,
      "_OUT": 4767,
      "img": 4768,
      "Default": 4769,
      "Probs": 4770,
      "ToString": 4771,
      "GameOver": 4772,
      "PROG": 4773,
      "callback": 4774,
      "children": 4775,
      "FRE_ILLEGAL": 4776,
      "DSP3_O": 4777,
      "OpenBus": 4778,
      "delegate": 4779,
      "UPDATE": 4780,
      "Interstitial": 4781,
      "logicHasUser": 4782,
      "Returns": 4783,
      "basename": 4784,
      "UTF8": 4785,
      "_acvars": 4786,
      "zif_aap_": 4787,
      "FRE_ILLEGAL_STATE": 4788,
      "'/": 4789,
      "BAPI": 4790,
      "CATE": 4791,
      "Dinterp": 4792,
      "HO": 4793,
      "HARM": 4794,
      "MENT": 4795,
      "Mail": 4796,
      "NESS": 4797,
      "PUR": 4798,
      "Slave": 4799,
      "Zero": 4800,
      "[--": 4801,
      "_node": 4802,
      "_builds": 4803,
      "gran": 4804,
      "rf": 4805,
      "za": 4806,
      "INESS": 4807,
      "getC": 4808,
      "essages": 4809,
      "Inc": 4810,
      "=\"+": 4811,
      "->]": 4812,
      "lv_wrbtr": 4813,
      "volat": 4814,
      "('\\": 4815,
      "usePTY": 4816,
      "010": 4817,
      "TABILITY": 4818,
      "score1": 4819,
      "token_type": 4820,
      "Login": 4821,
      "SBDST_CLIENT": 4822,
      "containing": 4823,
      "cast": 4824,
      "sync": 4825,
      "svg": 4826,
      "svn": 4827,
      "SHORT": 4828,
      "AppSession": 4829,
      "Align": 4830,
      "AUSE": 4831,
      "ferent": 4832,
      "doesn": 4833,
      "CHANTABILITY": 4834,
      "sync_clean": 4835,
      "fnam": 4836,
      "extends": 4837,
      "////////////////////////////////////////////////": 4838,
      "typed": 4839,
      "DERS": 4840,
      "SPC71": 4841,
      "language": 4842,
      "IOException": 4843,
      "Windows": 4844,
      "lx_ex": 4845,
      "DAMAGES": 4846,
      "TYP_DB_DATA": 4847,
      "RISK": 4848,
      "ix_previous": 4849,
      "MERCHANTABILITY": 4850,
      "FITNESS": 4851,
      "DURATION": 4852,
      "HARMLESS": 4853,
      "[--->]": 4854,
      "volatile": 4855,
      "';": 4856,
      "CT_": 4857,
      "Dist": 4858,
      "FT_": 4859,
      "ILE": 4860,
      "OB": 4861,
      "SIG": 4862,
      "_count": 4863,
      "_ok": 4864,
      "aded": 4865,
      "bund": 4866,
      "m2": 4867,
      "sf": 4868,
      "simp": 4869,
      "z80": 4870,
      "zAlloc": 4871,
      "arn": 4872,
      "ites": 4873,
      "iden": 4874,
      "appe": 4875,
      "proc_": 4876,
      "oft": 4877,
      "INGS": 4878,
      "istribut": 4879,
      "0x8": 4880,
      "mach": 4881,
      "ither": 4882,
      "Ext": 4883,
      "CLASS_": 4884,
      "ls_level": 4885,
      "iv_objectname": 4886,
      "ather": 4887,
      "CONV": 4888,
      "tries": 4889,
      "SBDST_CLASSNAME": 4890,
      "SBDST_CLASSTYPE": 4891,
      "SBDST_LOGICAL_SYSTEM": 4892,
      "SBDST_OBJECT_KEY": 4893,
      "XmlInstruction": 4894,
      "Service": 4895,
      "cessed": 4896,
      "PARTI": 4897,
      "NOT_FOUND": 4898,
      "flags": 4899,
      "Events": 4900,
      "_smoke_builder": 4901,
      "ference": 4902,
      "ID_TAB": 4903,
      "applications": 4904,
      "windows64": 4905,
      "hereby": 4906,
      "dicPos": 4907,
      "Before": 4908,
      "required": 4909,
      "Permission": 4910,
      "Redistribut": 4911,
      "gaiden": 4912,
      "granted": 4913,
      "appear": 4914,
      "\").": 4915,
      "(-": 4916,
      "('.": 4917,
      "19": 4918,
      "1_": 4919,
      "BL": 4920,
      "Db": 4921,
      "ETHER": 4922,
      "GEN": 4923,
      "Mac": 4924,
      "PATH": 4925,
      "Rew": 4926,
      "SO": 4927,
      "SWR": 4928,
      "SRAM": 4929,
      "UFF": 4930,
      "Width": 4931,
      "_by": 4932,
      "_character": 4933,
      "aa": 4934,
      "cer": 4935,
      "cla": 4936,
      "gon": 4937,
      "kun": 4938,
      "kpro": 4939,
      "l_day": 4940,
      "que": 4941,
      "ry": 4942,
      "random": 4943,
      "sg": 4944,
      "store": 4945,
      "three": 4946,
      "arded": 4947,
      "ro_": 4948,
      "abs": 4949,
      "getH": 4950,
      "RECT": 4951,
      "test_factory": 4952,
      "AST": 4953,
      "CLAI": 4954,
      "shap": 4955,
      "common": 4956,
      "both": 4957,
      "ARISING": 4958,
      "ISql": 4959,
      "LOC": 4960,
      "ols": 4961,
      "':'": 4962,
      "64_test_factory": 4963,
      "WHETHER": 4964,
      "DEFINE": 4965,
      "parameter_error": 4966,
      "levels": 4967,
      "matches": 4968,
      "SessionMessage": 4969,
      "bottom": 4970,
      "CONTRACT": 4971,
      "SHALL": 4972,
      "authorized": 4973,
      "double_": 4974,
      "DIRECT": 4975,
      "not_allowed": 4976,
      "not_authorized": 4977,
      "POSE": 4978,
      "LIABLE": 4979,
      "FTCCharacter": 4980,
      "operation": 4981,
      "Work16": 4982,
      "ParseError": 4983,
      "nothing_found": 4984,
      "Called": 4985,
      "LOG_LEVEL": 4986,
      "_dicts": 4987,
      "Python": 4988,
      "clsname": 4989,
      "error_kpro": 4990,
      "pccArr": 4991,
      "since": 4992,
      "CULAR": 4993,
      "PURPOSE": 4994,
      "PARTICULAR": 4995,
      "kunnr": 4996,
      "'))": 4997,
      "Desc": 4998,
      "Day": 4999,
      "Foo": 5000,
      "FLOW": 5001,
      "Met": 5002,
      "PB": 5003,
      "Sen": 5004,
      "UI": 5005,
      "WN": 5006,
      "_a": 5007,
      "_request": 5008,
      "_matrix": 5009,
      "_context": 5010,
      "cle": 5011,
      "cannot": 5012,
      "done": 5013,
      "future": 5014,
      "ia": 5015,
      "ius": 5016,
      "pas": 5017,
      "rw": 5018,
      "sitDownStatus": 5019,
      "va": 5020,
      "}}": 5021,
      "star": 5022,
      "annot_": 5023,
      "ily": 5024,
      "eline": 5025,
      "testsuite": 5026,
      "moo": 5027,
      "permit": 5028,
      "amt_": 5029,
      "======": 5030,
      "lv_error": 5031,
      "usage": 5032,
      "value_": 5033,
      "ISzAlloc": 5034,
      "_slave": 5035,
      "score2": 5036,
      "Listener": 5037,
      "ipeline": 5038,
      "changer": 5039,
      "get_annotations_": 5040,
      "P1Score": 5041,
      "represent": 5042,
      "P2Score": 5043,
      "generated": 5044,
      "SizeT": 5045,
      "tabix": 5046,
      "_BIT": 5047,
      "Writer": 5048,
      "change_failure": 5049,
      "_testmedia": 5050,
      "sendStatus": 5051,
      "attributes_ok": 5052,
      "Runtime": 5053,
      "toplevel": 5054,
      "STATUS": 5055,
      "STATUS_": 5056,
      "_record": 5057,
      "zcx_aap_annot_": 5058,
      "_PATH": 5059,
      "Groups": 5060,
      "WARN": 5061,
      "#########################################": 5062,
      "HashMap": 5063,
      "times": 5064,
      "ClientAction": 5065,
      "detail": 5066,
      "halfmoon": 5067,
      "syntaxError": 5068,
      "cl_gui_": 5069,
      "SRAMMask": 5070,
      "zif_aap_annotation_": 5071,
      "Rewarded": 5072,
      "get_annotations_for_": 5073,
      "zcx_aap_annot_change_failure": 5074,
      "*\",": 5075,
      "23": 5076,
      "28": 5077,
      "=['": 5078,
      "Bao": 5079,
      "CMatchFinder": 5080,
      "Dar": 5081,
      "Field": 5082,
      "GRE": 5083,
      "GORY": 5084,
      "Mutable": 5085,
      "NES": 5086,
      "Or": 5087,
      "TORT": 5088,
      "WF": 5089,
      "YES": 5090,
      "[:": 5091,
      "_room": 5092,
      "_run": 5093,
      "ful": 5094,
      "gre": 5095,
      "lar": 5096,
      "title": 5097,
      "ar_": 5098,
      "device": 5099,
      "uncovered": 5100,
      "RECE": 5101,
      "forms": 5102,
      "testData": 5103,
      "_find": 5104,
      "THIS": 5105,
      "MEMM": 5106,
      "perf": 5107,
      "upper": 5108,
      "behavior": 5109,
      "EXPE": 5110,
      "Deleg": 5111,
      "checkout": 5112,
      "NSMutable": 5113,
      "has_attributes": 5114,
      "riptor": 5115,
      "RoomStatus": 5116,
      "EXPRESS": 5117,
      "WISE": 5118,
      "PUT_": 5119,
      "ween": 5120,
      "week": 5121,
      "OTHERWISE": 5122,
      "BUFF": 5123,
      "svrAction": 5124,
      "SourceStamp": 5125,
      "arrid": 5126,
      "UPDATE_": 5127,
      "TBXML_": 5128,
      "legal": 5129,
      "ACTI": 5130,
      "mac_ppc_104": 5131,
      "warded": 5132,
      "=['../": 5133,
      "SapFlow": 5134,
      "SelectSingle": 5135,
      "AOC_": 5136,
      "COLOR_MASK": 5137,
      "CONNEC": 5138,
      "negotiate_": 5139,
      "sequence": 5140,
      "additional": 5141,
      "Delegate": 5142,
      "SelectSingleNode": 5143,
      "29": 5144,
      "256": 5145,
      "36": 5146,
      "Clear": 5147,
      "Dream": 5148,
      "DAY": 5149,
      "HOL": 5150,
      "Opt": 5151,
      "Qizi": 5152,
      "SC": 5153,
      "SRes": 5154,
      "_number": 5155,
      "feng": 5156,
      "mb": 5157,
      "pret": 5158,
      "wise": 5159,
      "attemp": 5160,
      "enc": 5161,
      "encoding": 5162,
      "selection": 5163,
      "remo": 5164,
      "already": 5165,
      "loaded": 5166,
      "getP": 5167,
      "unknown": 5168,
      "ules": 5169,
      "RES": 5170,
      "lv_offset": 5171,
      "LE_": 5172,
      "STR": 5173,
      "being": 5174,
      "('-": 5175,
      "lineBuffer": 5176,
      "finally": 5177,
      "FREGet": 5178,
      "under": 5179,
      "read_": 5180,
      "illise": 5181,
      "get_state": 5182,
      "run_test": 5183,
      "configure": 5184,
      "connect": 5185,
      "book": 5186,
      "descri": 5187,
      "versions": 5188,
      "constants": 5189,
      "expectedout": 5190,
      "0x7ff": 5191,
      "FIELD_UTENTE_": 5192,
      "Interface": 5193,
      "MatchFinder_": 5194,
      "Ready": 5195,
      "ZCL_AOC_": 5196,
      "Implementation": 5197,
      "multiple": 5198,
      "between": 5199,
      "Password": 5200,
      "Purpose": 5201,
      "scene2D": 5202,
      "download_testmedia": 5203,
      "CATEGORY": 5204,
      "machine": 5205,
      "RewardedVideo": 5206,
      "RECEIV": 5207,
      "CONNECTION": 5208,
      "Dreamer": 5209,
      "HOLDERS": 5210,
      "fengBao": 5211,
      "illisecond": 5212,
      "ZCL_AOC_CATEGORY": 5213,
      "){": 5214,
      "ACE": 5215,
      "AAP_": 5216,
      "Math": 5217,
      "Msg": 5218,
      "_IN": 5219,
      "_print": 5220,
      "ah": 5221,
      "bind": 5222,
      "cached": 5223,
      "fall": 5224,
      "sparc": 5225,
      "ves": 5226,
      "|=": 5227,
      "means": 5228,
      "ities": 5229,
      "EN_": 5230,
      "ely": 5231,
      "ulate": 5232,
      "apache": 5233,
      "buk": 5234,
      "tech": 5235,
      "clip": 5236,
      "mage": 5237,
      "shp": 5238,
      "lv_value": 5239,
      "impression": 5240,
      "CLASS_NAME": 5241,
      "logger": 5242,
      "('--": 5243,
      "==============": 5244,
      "possi": 5245,
      "APP_C": 5246,
      "==============================": 5247,
      "includes": 5248,
      "Parent": 5249,
      "Parser": 5250,
      "based": 5251,
      "FIELDS": 5252,
      "I_FUNCNAME": 5253,
      "sb_mac_intel_105": 5254,
      "execut": 5255,
      "polygon": 5256,
      "depend": 5257,
      "internal": 5258,
      "565": 5259,
      "BUILD": 5260,
      "receive": 5261,
      "env_var": 5262,
      "CURRENT_SPECIAL_OBJECT_INFO": 5263,
      "clock_three": 5264,
      "protocol": 5265,
      "seconds": 5266,
      "linux_arm_deep_factory": 5267,
      "passed": 5268,
      "larshp": 5269,
      "+----------------------------------------------------------------": 5270,
      "+--------------------------------------------------------------------------------------": 5271,
      ".',": 5272,
      ">--------------------------------------------------------------------------------------": 5273,
      "H_": 5274,
      "PR": 5275,
      "Sprite": 5276,
      "XX": 5277,
      "]))": 5278,
      "_animation": 5279,
      "az": 5280,
      "fon": 5281,
      "ios": 5282,
      "lc_": 5283,
      "lus": 5284,
      "supported": 5285,
      "ting": 5286,
      "stub": 5287,
      "these": 5288,
      "INT": 5289,
      "getRoom": 5290,
      "uni": 5291,
      "result_": 5292,
      "processed": 5293,
      "returned": 5294,
      "---------------------------------+": 5295,
      "actu": 5296,
      "lv_i": 5297,
      "lv_bar": 5298,
      "velo": 5299,
      "Reference": 5300,
      "CLASSES": 5301,
      "Dec": 5302,
      "test_builder": 5303,
      "run_p": 5304,
      "UtenteMapper": 5305,
      "FORMAT": 5306,
      "myname": 5307,
      "radius": 5308,
      "Nome": 5309,
      "solute": 5310,
      "mac_ppc_105": 5311,
      "Director": 5312,
      "coverage": 5313,
      "lcv": 5314,
      "SZ_ERROR": 5315,
      "SalesforceFlow": 5316,
      "aterfall": 5317,
      "m_score1": 5318,
      "SIST": 5319,
      "endswith": 5320,
      "mapping": 5321,
      "written": 5322,
      "currency": 5323,
      "interrupted": 5324,
      "bb_slave": 5325,
      "Pairs": 5326,
      "RECEIVING": 5327,
      "bukrs": 5328,
      "+-------------------------------------------------------------------------------------------------+": 5329,
      "+--------------------------------------------------------------------------------------</": 5330,
      ">---------------------------------------------------------------------------------------+": 5331,
      "run_pipe": 5332,
      "bb_slaveupdate": 5333,
      "Bot": 5334,
      "COR": 5335,
      "Feder": 5336,
      "Go": 5337,
      "Il": 5338,
      "Item": 5339,
      "Last": 5340,
      "Off": 5341,
      "Prev": 5342,
      "PFLAGS": 5343,
      "Que": 5344,
      "Two": 5345,
      "YE": 5346,
      "ZION": 5347,
      "[%": 5348,
      "\\\"": 5349,
      "_tests": 5350,
      "ear": 5351,
      "messages": 5352,
      "qizi": 5353,
      "tvm": 5354,
      "vision": 5355,
      "x_salv_": 5356,
      "-->": 5357,
      "entries": 5358,
      "meth": 5359,
      "lex": 5360,
      "abel": 5361,
      "ables": 5362,
      "getChair": 5363,
      "defer": 5364,
      "ALIT": 5365,
      "layout": 5366,
      "play_game": 5367,
      "ANAG": 5368,
      "upp": 5369,
      "compil": 5370,
      "_tt": 5371,
      "_screen": 5372,
      "iv_name": 5373,
      "Construct": 5374,
      "Convert": 5375,
      "it_levels": 5376,
      "Force": 5377,
      "')],": 5378,
      "util_clean": 5379,
      "mv_01": 5380,
      "callstmt": 5381,
      "such": 5382,
      "XMLFile": 5383,
      "ResultSet": 5384,
      "works": 5385,
      "FUNZION": 5386,
      "containing_": 5387,
      "abc_getprop": 5388,
      "PERFORM": 5389,
      "expected_": 5390,
      "optrec": 5391,
      "2012": 5392,
      "special": 5393,
      "yea_": 5394,
      "64_compile_factory": 5395,
      "testcase_dicts": 5396,
      "Component": 5397,
      "Controller": 5398,
      "sync_update": 5399,
      "sync_clone": 5400,
      "0x1f": 5401,
      "_functions": 5402,
      "DSP4_WRITE_WORD": 5403,
      "logicGetRoom": 5404,
      "AccessMode": 5405,
      "HI_BIT_MASK": 5406,
      "traces": 5407,
      "_buildsdir": 5408,
      "zif_aap_annotation_resolver": 5409,
      "util_clean_buildsdir": 5410,
      "FUNZIONALIT": 5411,
      "(['": 5412,
      ")',": 5413,
      "=',": 5414,
      ">(": 5415,
      "BGR": 5416,
      "C2": 5417,
      "Clic": 5418,
      "LAN": 5419,
      "Ruoli": 5420,
      "TM": 5421,
      "Task": 5422,
      "aw": 5423,
      "dup": 5424,
      "ik": 5425,
      "mall": 5426,
      "por": 5427,
      "pat": 5428,
      "pal": 5429,
      "slot": 5430,
      "uSh": 5431,
      "sty": 5432,
      "req": 5433,
      "align": 5434,
      "anim": 5435,
      "codes": 5436,
      "ext_": 5437,
      "edit": 5438,
      "tests_": 5439,
      "TEMP": 5440,
      "lv_b": 5441,
      "lv_name": 5442,
      "ls_bot": 5443,
      "_OS_": 5444,
      "_OID_TAB": 5445,
      "imum": 5446,
      "die": 5447,
      "numPairs": 5448,
      "Any": 5449,
      "again": 5450,
      "WITH_": 5451,
      "_BUS": 5452,
      "Some": 5453,
      "two": 5454,
      "linux_arm": 5455,
      "ActionScript": 5456,
      "SHUFF": 5457,
      "CLIENTAcceptor": 5458,
      "Alpha": 5459,
      "getUserSessionId": 5460,
      "helper": 5461,
      "Leave": 5462,
      "Connector": 5463,
      "PLAY": 5464,
      "Work8": 5465,
      "RUOLO_": 5466,
      "CX_OS_OBJECT_NOT_FOUND": 5467,
      "wl_object": 5468,
      "Popen": 5469,
      "Cycl": 5470,
      "SPC7110": 5471,
      "Queue": 5472,
      "Click": 5473,
      "ls_boton": 5474,
      "SHUFFLED_": 5475,
      "![": 5476,
      "'(": 5477,
      "'///": 5478,
      ")[": 5479,
      ".')": 5480,
      "255": 5481,
      "Ado": 5482,
      "AM_": 5483,
      "BAL": 5484,
      "Fa": 5485,
      "Fe": 5486,
      "New": 5487,
      "Native": 5488,
      "_2": 5489,
      "_all": 5490,
      "bk": 5491,
      "echo": 5492,
      "ide": 5493,
      "ivar": 5494,
      "l_date": 5495,
      "nam": 5496,
      "native": 5497,
      "pur": 5498,
      "ram": 5499,
      "ruoli": 5500,
      "sid": 5501,
      "uu": 5502,
      "once": 5503,
      "enu": 5504,
      "ard_": 5505,
      "record": 5506,
      "coder": 5507,
      "getConnection": 5508,
      "003": 5509,
      "004": 5510,
      "retain": 5511,
      "mo_tree": 5512,
      "parsed": 5513,
      "ASC": 5514,
      "active": 5515,
      "domain": 5516,
      "lv_str": 5517,
      "Chain": 5518,
      "izhu": 5519,
      "Rece": 5520,
      "IF_": 5521,
      "IF_OS_": 5522,
      "STATE": 5523,
      "Stack": 5524,
      "ARY": 5525,
      "..#.": 5526,
      "_spec": 5527,
      "iv_annotationname": 5528,
      "Entry": 5529,
      "Decl": 5530,
      "test_selftest": 5531,
      "output_file": 5532,
      "ELL": 5533,
      "prev": 5534,
      "configuration": 5535,
      "ModelByDdz": 5536,
      "p_kind": 5537,
      "ports": 5538,
      "sizeof": 5539,
      "TennisTests": 5540,
      "modific": 5541,
      "material": 5542,
      "################################################": 5543,
      "viewport": 5544,
      "PERSIST": 5545,
      "lo_application": 5546,
      "Success": 5547,
      "Timed": 5548,
      "InitAirMethod": 5549,
      "Dictionary": 5550,
      "**********************************************************************": 5551,
      "Append": 5552,
      "DSP1_": 5553,
      "Handle": 5554,
      "LDAP": 5555,
      "Prepar": 5556,
      "terminated": 5557,
      "termios": 5558,
      "different": 5559,
      "safe": 5560,
      "RangeEnc_": 5561,
      "Configuration": 5562,
      ".####.": 5563,
      "chron": 5564,
      "PIXEL": 5565,
      "identifier": 5566,
      "SUBRC": 5567,
      "INSERT": 5568,
      "OBC1": 5569,
      "start_": 5570,
      "RuntimeException": 5571,
      "Illegal": 5572,
      "ANAGRA": 5573,
      "Adobe": 5574,
      "\"])": 5575,
      "\"</": 5576,
      ".,": 5577,
      "/%": 5578,
      "39": 5579,
      ":\"": 5580,
      "=','": 5581,
      "Big": 5582,
      "First": 5583,
      "Filter": 5584,
      "Mask": 5585,
      "PS_": 5586,
      "SER": 5587,
      "Slow": 5588,
      "YY": 5589,
      "Z_": 5590,
      "_names": 5591,
      "_container": 5592,
      "cap": 5593,
      "eval": 5594,
      "fill": 5595,
      "ose": 5596,
      "small": 5597,
      "ui": 5598,
      "z_": 5599,
      "inst": 5600,
      "inser": 5601,
      "onCharacter": 5602,
      "still": 5603,
      "repository": 5604,
      "cov": 5605,
      "codf": 5606,
      "ONE": 5607,
      "testSuite": 5608,
      "promote": 5609,
      "proble": 5610,
      "argvalue": 5611,
      "(\".": 5612,
      "lv_s": 5613,
      "newLine": 5614,
      "quit": 5615,
      "quot": 5616,
      "avg": 5617,
      "LOCAL": 5618,
      "Def": 5619,
      "Users": 5620,
      "64_smoke_factory": 5621,
      "CONFI": 5622,
      "curs": 5623,
      "var_tg": 5624,
      "FIX": 5625,
      "dirname": 5626,
      "ADDR": 5627,
      "new_doc_var": 5628,
      "new_var_tg": 5629,
      "included": 5630,
      "indic": 5631,
      "templates": 5632,
      "Symbo": 5633,
      "componenttype": 5634,
      "DSP3_B": 5635,
      "rv_bits": 5636,
      "_OBJECT_REF": 5637,
      "Op14": 5638,
      "xmlElement": 5639,
      "LOW_BIT_MASK": 5640,
      "zcl_aoc_super": 5641,
      "ferred": 5642,
      "columns": 5643,
      "Dispatch": 5644,
      "in_count": 5645,
      "elements": 5646,
      "side": 5647,
      "Import": 5648,
      "Only": 5649,
      "Precondition": 5650,
      "Parameters": 5651,
      "Changelog": 5652,
      "view_yofs": 5653,
      "pattern_list": 5654,
      "logicGetUser": 5655,
      "GL_TEXT": 5656,
      "p_sub_obj_name": 5657,
      "highest": 5658,
      "Postcondition": 5659,
      "sexpr": 5660,
      "FILTER": 5661,
      "AZIENDA": 5662,
      "ISqlDatabase": 5663,
      "_BITS_": 5664,
      "BUFFER": 5665,
      "new_doc_var_tg": 5666,
      ")]": 5667,
      ")])": 5668,
      "18": 5669,
      "Async": 5670,
      "B_": 5671,
      "Branch": 5672,
      "IREF": 5673,
      "JuSh": 5674,
      "KIND": 5675,
      "Label": 5676,
      "]+": 5677,
      "]:": 5678,
      "_g": 5679,
      "cated": 5680,
      "card": 5681,
      "eMapper": 5682,
      "fre": 5683,
      "oop": 5684,
      "sn": 5685,
      "t100": 5686,
      "ux": 5687,
      "vmp": 5688,
      "x_s": 5689,
      "atab": 5690,
      "atable": 5691,
      "delt": 5692,
      "cos": 5693,
      "etime": 5694,
      "est_ad": 5695,
      "exe": 5696,
      "exact": 5697,
      "ENV_": 5698,
      "resume": 5699,
      "concret": 5700,
      "proc": 5701,
      "irest_ad": 5702,
      "shot": 5703,
      "shift": 5704,
      "buildinfo": 5705,
      "\"\")": 5706,
      "ENTCLASS_": 5707,
      "keySet": 5708,
      "olbar": 5709,
      "_dy": 5710,
      "scirest_ad": 5711,
      "until": 5712,
      "escape": 5713,
      "runs": 5714,
      "OpAddress": 5715,
      "neon_": 5716,
      "']=": 5717,
      "web": 5718,
      "passes": 5719,
      "change_": 5720,
      "Over_a": 5721,
      "selected": 5722,
      "ByteArray": 5723,
      "trade": 5724,
      "linux64": 5725,
      "00000000": 5726,
      "Applic": 5727,
      "DOCUMENTCLASS_": 5728,
      "memc": 5729,
      "testcase_name": 5730,
      "avmshell_neon_": 5731,
      "products": 5732,
      "URRENT": 5733,
      "StatementType": 5734,
      "segments": 5735,
      "summary": 5736,
      "terminate": 5737,
      "m_score2": 5738,
      "BDS_DOCUMENTCLASS_": 5739,
      "p_sub_obj_type": 5740,
      "thrownException": 5741,
      "prepareStatement": 5742,
      ":@\"%@-%@\",": 5743,
      "original": 5744,
      "simple": 5745,
      "itespace": 5746,
      "MEMMAP": 5747,
      "SZ_ERROR_": 5748,
      "bkpf": 5749,
      "Declare": 5750,
      "_BITS_MASK": 5751,
      "JuShi": 5752,
      "vmpi": 5753,
      "concreteMapper": 5754,
      "Over_a_C": 5755,
      "BDS_DOCUMENTCLASS_GET": 5756,
      "\"].": 5757,
      "/>": 5758,
      "1m": 5759,
      "26": 5760,
      "DPROPERTIES": 5761,
      "Fast": 5762,
      "MAL": 5763,
      "QUE": 5764,
      "Random": 5765,
      "Screen": 5766,
      "VE": 5767,
      "_i": 5768,
      "_set_": 5769,
      "cpp": 5770,
      "jbo": 5771,
      "lor": 5772,
      "px": 5773,
      "pick": 5774,
      "decl": 5775,
      "is_text": 5776,
      "trait": 5777,
      "getBuilder": 5778,
      "getAzienda": 5779,
      "unk": 5780,
      "apshot": 5781,
      "TY_": 5782,
      "THEN": 5783,
      "parc_": 5784,
      "posed": 5785,
      "comma": 5786,
      "compare": 5787,
      "Deferred": 5788,
      "userId": 5789,
      "userSession": 5790,
      "escr": 5791,
      "netty": 5792,
      "acc": 5793,
      "annotatable": 5794,
      "BDS_BUS": 5795,
      "WITHO": 5796,
      "structures": 5797,
      "CE_": 5798,
      "refresh": 5799,
      "l_month": 5800,
      "Syn": 5801,
      "\":'+": 5802,
      "_cal": 5803,
      "lative": 5804,
      "sendRC": 5805,
      "nsx": 5806,
      "closed": 5807,
      "handler": 5808,
      "set_check": 5809,
      "maps": 5810,
      "missing": 5811,
      "Texture": 5812,
      "MODE": 5813,
      "WRAP": 5814,
      "avm2": 5815,
      "deleteAccountFrom": 5816,
      "WriteStrByTurn": 5817,
      "AVMFEATURE_": 5818,
      "waers": 5819,
      "DOC_VAR_TG": 5820,
      "DateTime": 5821,
      "Scene": 5822,
      "BYTE": 5823,
      "VectorObject": 5824,
      "progress": 5825,
      "ormalize": 5826,
      "10_5": 5827,
      "Utils": 5828,
      "ty_byte8": 5829,
      "RESPONDING": 5830,
      "BufSize": 5831,
      "mips": 5832,
      "solaris_sparc_": 5833,
      "typedescr": 5834,
      "arness": 5835,
      "STRING": 5836,
      "CORRESPONDING": 5837,
      "yea_json_": 5838,
      "LANGU": 5839,
      "palm": 5840,
      "Cycles": 5841,
      "Symbols": 5842,
      "Application": 5843,
      "Over_a_Card_": 5844,
      "jboss": 5845,
      "is_textid": 5846,
      ")==": 5847,
      ">{": 5848,
      "Lord": 5849,
      "Null": 5850,
      "Night": 5851,
      "OT": 5852,
      "Pattern": 5853,
      "Rect": 5854,
      "RCL": 5855,
      "Sec": 5856,
      "ZPS_": 5857,
      "bf": 5858,
      "bank": 5859,
      "carrid": 5860,
      "dd": 5861,
      "dar": 5862,
      "dizhu": 5863,
      "eff": 5864,
      "gc_fc_": 5865,
      "hg": 5866,
      "lr": 5867,
      "lv": 5868,
      "mone": 5869,
      "ns_": 5870,
      "nong": 5871,
      "tup": 5872,
      "ugh": 5873,
      "vbel": 5874,
      "yield": 5875,
      "inute": 5876,
      "thro": 5877,
      "retri": 5878,
      "leap_": 5879,
      "amelist": 5880,
      "isalive": 5881,
      "enti": 5882,
      "edStatement": 5883,
      "ular": 5884,
      "RE_CLASS": 5885,
      "005": 5886,
      "ORS": 5887,
      "propa": 5888,
      "returncode": 5889,
      "shutil": 5890,
      "lv_moo": 5891,
      "correspon": 5892,
      "not_found": 5893,
      "terns": 5894,
      "Thread": 5895,
      "cl_date": 5896,
      "appen": 5897,
      "NO_": 5898,
      "LO_CLASS": 5899,
      "iv_b": 5900,
      "ullse": 5901,
      "Proto": 5902,
      "TABNAME": 5903,
      "pay": 5904,
      "test_alv": 5905,
      "JSONTokener": 5906,
      "faces": 5907,
      "ancel": 5908,
      "RIBUT": 5909,
      "reader": 5910,
      "num_": 5911,
      "assign": 5912,
      "static_check": 5913,
      "accept": 5914,
      "posSlot": 5915,
      "gr_": 5916,
      "necess": 5917,
      "funzionalita": 5918,
      "']:": 5919,
      "Commit": 5920,
      "ayload": 5921,
      "descriptor": 5922,
      "currentAnimation": 5923,
      "ILL": 5924,
      "_SH": 5925,
      "span": 5926,
      "later": 5927,
      "iterator": 5928,
      "cx_static_check": 5929,
      "lcl_convert": 5930,
      "ifies": 5931,
      "2011": 5932,
      "NEW_VAR_": 5933,
      "d_night": 5934,
      "windows_compile_factory": 5935,
      "CONTRIBUT": 5936,
      "selected_": 5937,
      "nonce": 5938,
      "formatResult": 5939,
      "_release": 5940,
      "Note": 5941,
      "WriteStrBySend": 5942,
      "Collection": 5943,
      "seek": 5944,
      "leave_": 5945,
      "WRITE_LOG": 5946,
      "SZ_OK": 5947,
      "ogic": 5948,
      "encoded": 5949,
      "DOCUMENT_CLASSES": 5950,
      "BDS_WRITE_LOG": 5951,
      "setpropx_": 5952,
      "ArgumentException": 5953,
      "_RGB555": 5954,
      "produce": 5955,
      "s_in_month": 5956,
      "PH_CLASS": 5957,
      "individ": 5958,
      "Description": 5959,
      "DayLogin": 5960,
      "ACTIVE_": 5961,
      "PreparedStatement": 5962,
      "z_cl_date": 5963,
      "ENV_VAR": 5964,
      "lord_night": 5965,
      "Nightmare": 5966,
      "RCLogic": 5967,
      "ZPS_ANT": 5968,
      "money": 5969,
      "nongming": 5970,
      "vbeln": 5971,
      "through": 5972,
      "retrie": 5973,
      "leap_year": 5974,
      "NEW_VAR_TG": 5975,
      "CONTRIBUTORS": 5976,
      "lord_nightmare": 5977,
      "'':": 5978,
      "ARE": 5979,
      "Carry": 5980,
      "Fx": 5981,
      "GRO": 5982,
      "HAND": 5983,
      "ILook": 5984,
      "P4": 5985,
      "Peter": 5986,
      "Sa": 5987,
      "SING": 5988,
      "_h": 5989,
      "_status": 5990,
      "_options": 5991,
      "cx_salv_": 5992,
      "dx": 5993,
      "eded": 5994,
      "fing": 5995,
      "gmail": 5996,
      "jdo": 5997,
      "rl": 5998,
      "san": 5999,
      "ts": 6000,
      "tv_": 6001,
      "yp": 6002,
      "yz": 6003,
      "用户": 6004,
      "ories": 6005,
      "enge": 6006,
      "enza": 6007,
      "sep": 6008,
      "itta": 6009,
      "isso": 6010,
      "isfile": 6011,
      "etch": 6012,
      "chall": 6013,
      "ics": 6014,
      "icient": 6015,
      "getStrIpPort": 6016,
      "getSourceStamp": 6017,
      "ases": 6018,
      "READ_": 6019,
      "adenza": 6020,
      "name__": 6021,
      "forElement": 6022,
      "peed": 6023,
      "_fa": 6024,
      "promo": 6025,
      "c_type_": 6026,
      "amar": 6027,
      "',):": 6028,
      "eware": 6029,
      "'.'": 6030,
      "(\"\\": 6031,
      "commit": 6032,
      "timer": 6033,
      "_two": 6034,
      "ART_": 6035,
      "DATA_TAB": 6036,
      "im_date": 6037,
      "Decode": 6038,
      "use_": 6039,
      "checked": 6040,
      "SONAL": 6041,
      "dictionary": 6042,
      "subst": 6043,
      "numAvail": 6044,
      "Anim": 6045,
      "roomXml": 6046,
      "Round": 6047,
      "Root": 6048,
      "BuildShellCommand": 6049,
      "interfaces": 6050,
      "__name__": 6051,
      "='\"": 6052,
      "SetDSP3": 6053,
      "exit_funcname": 6054,
      "SBDST_DOC_VER_NO": 6055,
      "SBDST_DOC_VAR_ID": 6056,
      "discla": 6057,
      "twist": 6058,
      "abc_setprop": 6059,
      "PERSONAL": 6060,
      "cl_abap_typedescr": 6061,
      "iteration": 6062,
      "Finished": 6063,
      "blamelist": 6064,
      "Second": 6065,
      "Opens": 6066,
      "strict": 6067,
      "go_": 6068,
      "nonatomic": 6069,
      "sb_android": 6070,
      "AttributeNamed": 6071,
      "CREATE_": 6072,
      "_not_": 6073,
      "test001_01": 6074,
      "test001_02": 6075,
      "member": 6076,
      "IZE": 6077,
      "valueOfAttributeNamed": 6078,
      "DSP1_S": 6079,
      "AutoCommit": 6080,
      "kNumStates": 6081,
      "ChChessLogic": 6082,
      "IVE": 6083,
      "IV_": 6084,
      "Abc": 6085,
      "clock_two": 6086,
      "logicHasRoom": 6087,
      "LoggerLvl": 6088,
      "DISAB": 6089,
      "NONE": 6090,
      "zcl_aap_proc_": 6091,
      "io_tech": 6092,
      "clock_one": 6093,
      "verbose_print": 6094,
      "http_message": 6095,
      "isRepG": 6096,
      "remaining": 6097,
      "charging": 6098,
      "ATTRIBUTES": 6099,
      "workitem_id": 6100,
      "Empty": 6101,
      "INESSDOCUMENT_": 6102,
      "Redistributions": 6103,
      "_request_context": 6104,
      "removed": 6105,
      "inserted": 6106,
      "freeware": 6107,
      "avmshell_neon_arm": 6108,
      "BDS_BUSINESSDOCUMENT_": 6109,
      "WITHOUT": 6110,
      "Over_a_Card_module": 6111,
      "jdom2": 6112,
      "challenge": 6113,
      "c_type_include": 6114,
      "disclaimer": 6115,
      "io_tech_request_context": 6116,
      ".%": 6117,
      "27": 6118,
      "3d": 6119,
      "44": 6120,
      "98": 6121,
      ":[": 6122,
      "?=": 6123,
      "BR": 6124,
      "CA": 6125,
      "CG": 6126,
      "FT": 6127,
      "Fix": 6128,
      "GEX": 6129,
      "LPU": 6130,
      "ML": 6131,
      "Mis": 6132,
      "NSError": 6133,
      "Ojit": 6134,
      "PS": 6135,
      "RF": 6136,
      "Skip": 6137,
      "Wno": 6138,
      "_l": 6139,
      "_row": 6140,
      "_LEN": 6141,
      "aot": 6142,
      "border": 6143,
      "bullse": 6144,
      "either": 6145,
      "mlf": 6146,
      "pipe": 6147,
      "tty": 6148,
      "ts_": 6149,
      "vis": 6150,
      "increment": 6151,
      "stuff": 6152,
      "alway": 6153,
      "another": 6154,
      "ility": 6155,
      "lamb": 6156,
      "getScore": 6157,
      "idazienda": 6158,
      "_files": 6159,
      "strm": 6160,
      "poll": 6161,
      "mages": 6162,
      "lv_foo": 6163,
      "implied": 6164,
      "data2": 6165,
      "Report": 6166,
      "Revision": 6167,
      "login": 6168,
      "ABAP": 6169,
      "_ssh": 6170,
      "line_": 6171,
      "ls_result": 6172,
      "iv_key": 6173,
      "DSP2": 6174,
      "what": 6175,
      "COND": 6176,
      "RIP": 6177,
      "builder_name": 6178,
      "GetTest": 6179,
      "interstitial": 6180,
      "__main": 6181,
      "agent": 6182,
      "p_line": 6183,
      "'].": 6184,
      "COUN": 6185,
      "Portable": 6186,
      "128": 6187,
      "_BGR": 6188,
      "assertEqual": 6189,
      "Sound": 6190,
      "spl": 6191,
      "aux": 6192,
      "distances": 6193,
      "_CY": 6194,
      "lo_playground": 6195,
      "AndUser": 6196,
      "I_EXIT": 6197,
      "ntl": 6198,
      "USING": 6199,
      "GET_PRI": 6200,
      "WAIT_": 6201,
      "Base64": 6202,
      "0501": 6203,
      "show_": 6204,
      "blocking": 6205,
      "x86_64": 6206,
      "waitpid": 6207,
      "LDFLAGS": 6208,
      "commented": 6209,
      "Functions": 6210,
      "arm_arch": 6211,
      "persistent": 6212,
      "assoc_": 6213,
      "_direct": 6214,
      "requires": 6215,
      "WARRANTY": 6216,
      "AutoMatchMode": 6217,
      "cpu": 6218,
      "avmshell_sd_": 6219,
      "Limited": 6220,
      "MODU": 6221,
      "getMinute": 6222,
      "=?,\"": 6223,
      "Specific": 6224,
      "convert_": 6225,
      "_xmlf": 6226,
      "sharedChartboostWrapper": 6227,
      "ipients": 6228,
      "FooTest": 6229,
      "Dark": 6230,
      "0x7fff": 6231,
      "actual_": 6232,
      "containing_object_name": 6233,
      "iki": 6234,
      "highestScore": 6235,
      "delta": 6236,
      "_calc": 6237,
      "individual": 6238,
      "ACTIVE_TESTS": 6239,
      "GROUP": 6240,
      "amarin": 6241,
      "lambda": 6242,
      "__main__": 6243,
      "_xmlfile": 6244,
      "&=": 6245,
      ")((": 6246,
      ")>=": 6247,
      "25": 6248,
      "60": 6249,
      ">%": 6250,
      "Bortas": 6251,
      "DMA": 6252,
      "Fis": 6253,
      "Global": 6254,
      "IA": 6255,
      "Main": 6256,
      "Other": 6257,
      "Sig": 6258,
      "Tim": 6259,
      "_de": 6260,
      "_test_": 6261,
      "_output": 6262,
      "_result_": 6263,
      "br": 6264,
      "bortas": 6265,
      "cvs": 6266,
      "dFunction": 6267,
      "draw": 6268,
      "ii_": 6269,
      "jection": 6270,
      "map_": 6271,
      "nor": 6272,
      "naive": 6273,
      "pend": 6274,
      "pwd": 6275,
      "peter": 6276,
      "prag": 6277,
      "xe": 6278,
      "z0": 6279,
      "{\"": 6280,
      "ers_": 6281,
      "rem": 6282,
      "relative": 6283,
      "determ": 6284,
      "anti": 6285,
      "amedFunction": 6286,
      "itato": 6287,
      "ilitato": 6288,
      "chk": 6289,
      "==-": 6290,
      "getTab": 6291,
      "getSecond": 6292,
      "RED": 6293,
      "testing": 6294,
      "andreas": 6295,
      "return_code": 6296,
      "ofen": 6297,
      "Incor": 6298,
      "doVC": 6299,
      "************************": 6300,
      "Chang": 6301,
      "izing": 6302,
      "ST010": 6303,
      "express": 6304,
      "LOAD_": 6305,
      "button": 6306,
      "iv_password": 6307,
      "Idle": 6308,
      "URI": 6309,
      "D_TBXML_": 6310,
      "curAnd": 6311,
      "Total": 6312,
      "Row": 6313,
      "UE_": 6314,
      "has_key": 6315,
      "acqui": 6316,
      "pref": 6317,
      "LenPrice": 6318,
      "graph": 6319,
      "p_attributes": 6320,
      "exitstatus": 6321,
      "datum": 6322,
      "botones": 6323,
      "abc_get": 6324,
      "nsException": 6325,
      "mainLen": 6326,
      "NEW_DOC_VAR_TG": 6327,
      "offs": 6328,
      "Attributes": 6329,
      "OBJECT_IREF": 6330,
      "\"]])": 6331,
      "inputs": 6332,
      "FIELD_ANAGRA": 6333,
      "executable": 6334,
      "Company": 6335,
      "avmshell_wordcode": 6336,
      "pcArr": 6337,
      "deps": 6338,
      "Subflow": 6339,
      "ScriptObject": 6340,
      "QUER": 6341,
      "DISPLAY": 6342,
      "avmshell_sd": 6343,
      "logging_error": 6344,
      "MAP_S": 6345,
      "_jia": 6346,
      "counter": 6347,
      ".#####.": 6348,
      "HEADER": 6349,
      "FRENamedFunction": 6350,
      "Martin": 6351,
      "disabled": 6352,
      "DSP3_OP1": 6353,
      "bundles": 6354,
      "commons": 6355,
      "cl_gui_alv_grid": 6356,
      "methname": 6357,
      "porated": 6358,
      "Feather": 6359,
      "GL_TEXTURE_": 6360,
      "DeclareAirMethod": 6361,
      "efficient": 6362,
      "promotion": 6363,
      "twisted": 6364,
      "OpensnsException": 6365,
      "determine": 6366,
      "andreasnaive": 6367,
      "Incorporated": 6368,
      "_jiaofen": 6369,
      ")];": 6370,
      "-%": 6371,
      ".\"": 6372,
      "/)": 6373,
      "/**********************************************************************************": 6374,
      "35": 6375,
      "A2": 6376,
      "BG_": 6377,
      "Email": 6378,
      "GPL": 6379,
      "HG_": 6380,
      "IOS": 6381,
      "LIN": 6382,
      "Tex": 6383,
      "TON": 6384,
      "ZN": 6385,
      "_n": 6386,
      "_get_": 6387,
      "_view": 6388,
      "_MAX": 6389,
      "auto": 6390,
      "ba": 6391,
      "cc": 6392,
      "carg": 6393,
      "i6": 6394,
      "ling": 6395,
      "nul": 6396,
      "oth": 6397,
      "pty": 6398,
      "ssh": 6399,
      "sram": 6400,
      "tennis": 6401,
      "won_": 6402,
      "一个": 6403,
      "请求": 6404,
      "incom": 6405,
      "inPlay": 6406,
      "erce": 6407,
      "on_failure": 6408,
      "deal": 6409,
      "met": 6410,
      "ctypes": 6411,
      "lable": 6412,
      "getTest": 6413,
      "getContratto": 6414,
      "idUtente": 6415,
      "007": 6416,
      "strong": 6417,
      "InStream": 6418,
      "CLAUSE": 6419,
      "ewObject": 6420,
      "lv_key": 6421,
      "notified": 6422,
      "Name__": 6423,
      "compan": 6424,
      "Low": 6425,
      "Lock": 6426,
      "32BIT": 6427,
      "ls_entity": 6428,
      "LOA": 6429,
      "iv_text": 6430,
      "byuu": 6431,
      "+='<": 6432,
      "area": 6433,
      "winprocess": 6434,
      "UserInRoom": 6435,
      "D_COLOR_MASK": 6436,
      "NSData": 6437,
      "ignor": 6438,
      "ForGame": 6439,
      "ranty": 6440,
      "UND_": 6441,
      "get_cell": 6442,
      "__My": 6443,
      "repid": 6444,
      "repLen": 6445,
      "grind": 6446,
      "ADD": 6447,
      "SetZN": 6448,
      "AddCycles": 6449,
      "stmnt": 6450,
      "FileName": 6451,
      "SBDST_DOC_ID": 6452,
      "l_output": 6453,
      "################################################################################": 6454,
      "Systems": 6455,
      "_CURRENT_": 6456,
      "lw_": 6457,
      "requested": 6458,
      "CREEN": 6459,
      "otherwise": 6460,
      "specify": 6461,
      "maxLen": 6462,
      "Should": 6463,
      "OUTPUT_": 6464,
      "05a": 6465,
      "CLzmaDec": 6466,
      "fixed": 6467,
      "hello": 6468,
      "maybe": 6469,
      "lv_xor": 6470,
      "zione": 6471,
      "RCConnector": 6472,
      "edulers": 6473,
      "matrixB": 6474,
      "GUID": 6475,
      "OnFailure": 6476,
      "warranty": 6477,
      "Jordi": 6478,
      "obtaining": 6479,
      "abcOP_String": 6480,
      "Templates": 6481,
      "registered": 6482,
      "AVMSYSTEM_32BIT": 6483,
      "poly_clip": 6484,
      "marks": 6485,
      "turnOver_a_Card_module": 6486,
      "getMillisecond": 6487,
      "checkAllScoresForGame": 6488,
      "LZMA_NUM": 6489,
      "publ": 6490,
      "wi_buffer": 6491,
      "RESPONSE": 6492,
      "FRENewObject": 6493,
      "world_x": 6494,
      "rs_data": 6495,
      "MoveRecord": 6496,
      "rf05a": 6497,
      "GREEN_": 6498,
      "DAYS_": 6499,
      "RESULT": 6500,
      "lineBufferIn": 6501,
      "patterns": 6502,
      "CONFIG": 6503,
      "memcpy": 6504,
      "tuple": 6505,
      "AndUserXml": 6506,
      "WAIT_START": 6507,
      "MODULE": 6508,
      "pragma": 6509,
      "CompanyName__": 6510,
      "HG_URL": 6511,
      "others": 6512,
      "__MyCompanyName__": 6513,
      "(<": 6514,
      "(?": 6515,
      "(;;": 6516,
      "1f": 6517,
      "40": 6518,
      "=-": 6519,
      ">'": 6520,
      "Bily": 6521,
      "Baz": 6522,
      "DM": 6523,
      "Dig": 6524,
      "EMENT": 6525,
      "Lan": 6526,
      "Mid": 6527,
      "Obj": 6528,
      "OSE": 6529,
      "Rel": 6530,
      "ST_": 6531,
      "SNE": 6532,
      "Tag": 6533,
      "UInt": 6534,
      "Uses": 6535,
      "Vm": 6536,
      "WS": 6537,
      "W_": 6538,
      "_u": 6539,
      "_strings": 6540,
      "bg": 6541,
      "bene": 6542,
      "dFis": 6543,
      "ever": 6544,
      "eSe": 6545,
      "ged": 6546,
      "gary": 6547,
      "held": 6548,
      "iary": 6549,
      "jk": 6550,
      "kas": 6551,
      "mc": 6552,
      "nit": 6553,
      "nest": 6554,
      "pi": 6555,
      "rames": 6556,
      "sp_": 6557,
      "tile": 6558,
      "tamarin": 6559,
      "uck": 6560,
      "ven": 6561,
      "vce": 6562,
      "wl": 6563,
      "wit": 6564,
      "ycle": 6565,
      "yah": 6566,
      "参数": 6567,
      "坐下": 6568,
      "infile": 6569,
      "thes": 6570,
      "arning": 6571,
      "anom": 6572,
      "coerce": 6573,
      "itok": 6574,
      "ifec": 6575,
      "intext": 6576,
      "INFR": 6577,
      "icon_": 6578,
      "getUtente": 6579,
      "ty_funcname": 6580,
      "id_sql": 6581,
      "ash": 6582,
      "apter": 6583,
      "rier": 6584,
      "ORDER": 6585,
      "andon": 6586,
      "cons": 6587,
      "_foo": 6588,
      "INGEMENT": 6589,
      "parm": 6590,
      "partypes": 6591,
      "AS3": 6592,
      "istory": 6593,
      "ALINGS": 6594,
      "do_": 6595,
      "max_": 6596,
      "geom": 6597,
      "inez": 6598,
      "vements": 6599,
      "umitok": 6600,
      "Exchange": 6601,
      "upd": 6602,
      "oduck": 6603,
      "object_": 6604,
      "DEALINGS": 6605,
      "className": 6606,
      "ExceptionPexpect": 6607,
      "TestHel": 6608,
      "controller": 6609,
      "ROM_": 6610,
      "EST_": 6611,
      "it_parameters": 6612,
      "subsid": 6613,
      "********************************************************": 6614,
      "compiled": 6615,
      "Annot": 6616,
      "builderNames": 6617,
      "Resp": 6618,
      "precated": 6619,
      "mv_skip": 6620,
      "funcname": 6621,
      "heet": 6622,
      "Win32": 6623,
      "suja": 6624,
      "SBDST_SIGNATURE": 6625,
      "size_t": 6626,
      "Valid": 6627,
      "vmbase": 6628,
      "ty_log_level": 6629,
      "*\"*": 6630,
      "TRUE": 6631,
      "_MO": 6632,
      "_MIN": 6633,
      "regex": 6634,
      "md4": 6635,
      "blip": 6636,
      "actionStr": 6637,
      "OpenSPC": 6638,
      "fails": 6639,
      "MessageExchange": 6640,
      "Op13": 6641,
      "Indexed": 6642,
      "Charles": 6643,
      "AttributeBuffer": 6644,
      "calc": 6645,
      "gridNode": 6646,
      "ascadenza": 6647,
      "filters": 6648,
      "waiting": 6649,
      "Unit": 6650,
      "AUTHORS": 6651,
      "LIST_": 6652,
      "_toolbar": 6653,
      "Op23": 6654,
      "BUTTON": 6655,
      "extraVm": 6656,
      "Namespace": 6657,
      "view_y2": 6658,
      "IRQ": 6659,
      "AVMSYSTEM_IA": 6660,
      "NONINFR": 6661,
      "090501": 6662,
      "pixels": 6663,
      "_displayName": 6664,
      "Martinez": 6665,
      "////////////////////////////////////////////////////": 6666,
      "getHour": 6667,
      "CLAIM": 6668,
      "attempt": 6669,
      "describe": 6670,
      "unique": 6671,
      "style": 6672,
      "IllegalArgumentException": 6673,
      "ONE_CY": 6674,
      "trademarks": 6675,
      "SINGLE": 6676,
      "finger": 6677,
      "tv_data": 6678,
      "DSP1_Sin": 6679,
      "_lvl": 6680,
      "GL_TEXTURE_2D": 6681,
      "won_point": 6682,
      "companies": 6683,
      "(;;)": 6684,
      "Bilyue": 6685,
      "Lancer": 6686,
      "SNEeSe": 6687,
      "kasumitok": 6688,
      "nitsuja": 6689,
      "vcexe": 6690,
      "yahoo": 6691,
      "anomie": 6692,
      "ifecycle": 6693,
      "subsidiary": 6694,
      "MessageExchangePattern": 6695,
      "extraVmArgs": 6696,
      "AVMSYSTEM_IA32": 6697,
      "NONINFRINGEMENT": 6698,
      "ONE_CYCLE": 6699,
      "kasumitokoduck": 6700,
      "(%(": 6701,
      ")>>": 6702,
      "Bank": 6703,
      "CV": 6704,
      "Dere": 6705,
      "Fail": 6706,
      "Factor": 6707,
      "HC_": 6708,
      "Jer": 6709,
      "Koot": 6710,
      "KILL": 6711,
      "OBUTTON": 6712,
      "Rc": 6713,
      "Sign": 6714,
      "SKI": 6715,
      "Yl": 6716,
      "[],": 6717,
      "_is": 6718,
      "_ch": 6719,
      "_and": 6720,
      "_bo": 6721,
      "_set": 6722,
      "_mode": 6723,
      "_response": 6724,
      "bis": 6725,
      "bseg": 6726,
      "bomb": 6727,
      "css": 6728,
      "dur": 6729,
      "dummy": 6730,
      "fit": 6731,
      "gwin": 6732,
      "gative": 6733,
      "henderson": 6734,
      "jwe": 6735,
      "lan": 6736,
      "naccount": 6737,
      "pv_": 6738,
      "qwit": 6739,
      "supp": 6740,
      "vices": 6741,
      "would": 6742,
      "xx": 6743,
      "yet": 6744,
      "}'": 6745,
      "}|": 6746,
      "结束": 6747,
      "those": 6748,
      "remy": 6749,
      "leted": 6750,
      "iluo": 6751,
      "iff": 6752,
      "trig": 6753,
      "urs": 6754,
      "lo_descr": 6755,
      "toprint": 6756,
      "icBuffer": 6757,
      "ically": 6758,
      "asset_": 6759,
      "REA": 6760,
      "REPORT": 6761,
      "adata": 6762,
      "note": 6763,
      "rizz": 6764,
      "concurrency": 6765,
      "endregion": 6766,
      "verse": 6767,
      "projection": 6768,
      "ER_PATH": 6769,
      "ASH": 6770,
      "TID": 6771,
      "TIT": 6772,
      "impro": 6773,
      "allPeople": 6774,
      "These": 6775,
      "Exit": 6776,
      "Stdout": 6777,
      "object_processor": 6778,
      "so_c": 6779,
      "ABLE": 6780,
      "ls_structure": 6781,
      "ls_so_c": 6782,
      "iv_x": 6783,
      "iv_method": 6784,
      "RADI": 6785,
      "locally": 6786,
      "lt_code": 6787,
      "Fore": 6788,
      "liable": 6789,
      "neigh": 6790,
      "iva": 6791,
      "S_FO": 6792,
      "fee": 6793,
      "_SU": 6794,
      "Joel": 6795,
      "abc_increment": 6796,
      "WORKI": 6797,
      "srcLen": 6798,
      "1996": 6799,
      "searcher": 6800,
      "allocBig": 6801,
      "Func": 6802,
      "maxim": 6803,
      "ards": 6804,
      "AziendaMapper": 6805,
      "vectorint": 6806,
      "propertylate": 6807,
      "USER": 6808,
      "MOVE": 6809,
      "Upload": 6810,
      "ls_field": 6811,
      "arising": 6812,
      "lnx": 6813,
      "parentcomponent": 6814,
      "mac_intel_104": 6815,
      "Op08": 6816,
      "wa_": 6817,
      "PLACE": 6818,
      "LDER_PATH": 6819,
      "fully": 6820,
      "###########################################": 6821,
      "tmpLine": 6822,
      "_inv": 6823,
      "damages": 6824,
      "leaveUser": 6825,
      "><![": 6826,
      "rs_flags": 6827,
      "builtinabc": 6828,
      "flush": 6829,
      "slip": 6830,
      "TRANS": 6831,
      "Scheduler": 6832,
      "finishes": 6833,
      "\",\"\",\"\",\"\",\"": 6834,
      "integr": 6835,
      "world_y": 6836,
      "InputStream": 6837,
      "_frameInfo": 6838,
      "LOCK": 6839,
      "details": 6840,
      "RoomStatusByDdz": 6841,
      "FREGetObject": 6842,
      "fono": 6843,
      "callstmt3": 6844,
      "modifications": 6845,
      "viewport_": 6846,
      "palmData": 6847,
      "im_date_value": 6848,
      "RoundModelByDdz": 6849,
      "always": 6850,
      "ntlworld": 6851,
      "i686": 6852,
      "UsesColor": 6853,
      "jkoot": 6854,
      "Jerremy": 6855,
      "Yliluo": 6856,
      "bisqwit": 6857,
      "jweidman": 6858,
      "rizzo": 6859,
      "RADIOBUTTON": 6860,
      "neighbo": 6861,
      "S_FOLDER_PATH": 6862,
      "WORKITE": 6863,
      "Yliluoma": 6864,
      "\"+": 6865,
      "\"=?": 6866,
      "'$": 6867,
      ")-": 6868,
      ")/": 6869,
      "300": 6870,
      "4a": 6871,
      "76": 6872,
      "Batch": 6873,
      "CAST": 6874,
      "FE_": 6875,
      "Grid": 6876,
      "Hi": 6877,
      "Host": 6878,
      "I_OID": 6879,
      "Kie": 6880,
      "Li": 6881,
      "Lit": 6882,
      "Lib": 6883,
      "Lifecycle": 6884,
      "PA": 6885,
      "PI": 6886,
      "SAP": 6887,
      "Target": 6888,
      "]])": 6889,
      "_R": 6890,
      "_e": 6891,
      "_config": 6892,
      "_command": 6893,
      "_info": 6894,
      "_handle": 6895,
      "_settings": 6896,
      "b4": 6897,
      "bz": 6898,
      "c2": 6899,
      "cmp": 6900,
      "cput": 6901,
      "croll": 6902,
      "fill_": 6903,
      "feder": 6904,
      "gt": 6905,
      "how": 6906,
      "harness": 6907,
      "iver": 6908,
      "mut": 6909,
      "mid": 6910,
      "pull": 6911,
      "push": 6912,
      "qty": 6913,
      "waterfall": 6914,
      "seos": 6915,
      "sted": 6916,
      "deprecated": 6917,
      "ingChain": 6918,
      "rop": 6919,
      "ametr": 6920,
      "et_": 6921,
      "int2": 6922,
      "intValue": 6923,
      "ably": 6924,
      "REPLACE": 6925,
      "ONTH": 6926,
      "fork": 6927,
      "test_smoke": 6928,
      "ubcodf": 6929,
      "end_": 6930,
      "tele": 6931,
      "------------------------------------------------": 6932,
      "ERT_": 6933,
      "Inner": 6934,
      "pout": 6935,
      "defmap": 6936,
      "arge": 6937,
      "0x100": 6938,
      "amb": 6939,
      "lv_r": 6940,
      "lv_len": 6941,
      "licen": 6942,
      "Cocos": 6943,
      "umb": 6944,
      "Than": 6945,
      "compat": 6946,
      "complete": 6947,
      "('^": 6948,
      "ls_count": 6949,
      "ls_wa": 6950,
      "expand": 6951,
      "EXC": 6952,
      "older": 6953,
      "imal": 6954,
      "scale": 6955,
      "whitespace": 6956,
      "Provid": 6957,
      "FIR": 6958,
      "reading": 6959,
      "prev_": 6960,
      "startup": 6961,
      "shellExec": 6962,
      "EXPORT": 6963,
      "SBDST_COMPONENTS": 6964,
      "tabs": 6965,
      "current_": 6966,
      "auw": 6967,
      "_MATCH": 6968,
      "ceptingChain": 6969,
      "owner": 6970,
      "assert_initial": 6971,
      "enabled": 6972,
      "PosSlot": 6973,
      "flag_value": 6974,
      "World": 6975,
      "EnvVar": 6976,
      "Show": 6977,
      "0x38": 6978,
      "program_name": 6979,
      "_pattern": 6980,
      "CCESS": 6981,
      "nowPos": 6982,
      "fixes": 6983,
      "Mouse": 6984,
      "InterceptingChain": 6985,
      "SELECTION": 6986,
      "ACER": 6987,
      "INTERNAL_": 6988,
      "dicBufSize": 6989,
      "matrixC": 6990,
      "Height": 6991,
      "partly": 6992,
      "initWithInvocation": 6993,
      "warn": 6994,
      "Multip": 6995,
      "ViewController": 6996,
      "Parameterized": 6997,
      "MuleException": 6998,
      "BUILD_": 6999,
      "ProbPrices": 7000,
      "CODE_": 7001,
      "Hello": 7002,
      "_of_month": 7003,
      "tasks": 7004,
      "invok": 7005,
      "dynpro": 7006,
      "GetStringParam": 7007,
      "view_xofs": 7008,
      "Props": 7009,
      "plaintext": 7010,
      "**********************************************************************************/": 7011,
      "separator": 7012,
      "2xSa": 7013,
      "================================================================================================": 7014,
      "Button": 7015,
      "PROGRAM": 7016,
      "BLUE_": 7017,
      "double_click": 7018,
      "FLOW_NAME": 7019,
      "WARNING": 7020,
      "perf_release": 7021,
      "possible": 7022,
      "env_var_value": 7023,
      "_animationId": 7024,
      "compiler": 7025,
      "problem": 7026,
      "atablo": 7027,
      "MEMMAP_MASK": 7028,
      "darwin": 7029,
      "leave_Chair": 7030,
      "ILookChairModel": 7031,
      "FIELD_ANAGRAFE_": 7032,
      "SubflowInterceptingChain": 7033,
      "publish": 7034,
      "benefit": 7035,
      "mv_skipc": 7036,
      "Derek": 7037,
      "Liauw": 7038,
      "LifecycleWrapper": 7039,
      "seosubcodf": 7040,
      "2xSaI": 7041,
      "SubflowInterceptingChainLifecycleWrapper": 7042,
      "([\"": 7043,
      "*',": 7044,
      "3x": 7045,
      "48": 7046,
      "4x": 7047,
      "<-": 7048,
      "=[]": 7049,
      "CZ": 7050,
      "Equals": 7051,
      "ELEM": 7052,
      "FAL": 7053,
      "GTest": 7054,
      "High": 7055,
      "Les": 7056,
      "LER": 7057,
      "NP": 7058,
      "NOR": 7059,
      "Page": 7060,
      "Pipeline": 7061,
      "PPFLAGS": 7062,
      "RCC": 7063,
      "SCREEN": 7064,
      "_message": 7065,
      "_on_failure": 7066,
      "a1": 7067,
      "aut": 7068,
      "aXMLElement": 7069,
      "bed": 7070,
      "bra": 7071,
      "cs": 7072,
      "cancel": 7073,
      "dl": 7074,
      "gor": 7075,
      "hiend": 7076,
      "iDb": 7077,
      "jar": 7078,
      "lhs": 7079,
      "ndef": 7080,
      "place": 7081,
      "qty_": 7082,
      "rt": 7083,
      "sim": 7084,
      "tation": 7085,
      "ttab": 7086,
      "vb": 7087,
      "|{": 7088,
      "回复": 7089,
      "获取": 7090,
      "inSize": 7091,
      "ati": 7092,
      "seo": 7093,
      "thres": 7094,
      "alog": 7095,
      "is_key": 7096,
      "ifest": 7097,
      "ifndef": 7098,
      "track": 7099,
      "too": 7100,
      "mplus": 7101,
      "ENTIAL": 7102,
      "abi": 7103,
      "getStatus": 7104,
      "unused": 7105,
      "ason": 7106,
      "as_file": 7107,
      "REFIX": 7108,
      "adir": 7109,
      "forwarded": 7110,
      "test00": 7111,
      "testnum": 7112,
      "testField": 7113,
      "ERRED": 7114,
      "valgrind": 7115,
      "extfactory": 7116,
      "(\"-": 7117,
      "(\"</": 7118,
      "setStatus": 7119,
      "setLong": 7120,
      "setCur": 7121,
      "avmplus": 7122,
      "Stiles": 7123,
      "object_type": 7124,
      "('/": 7125,
      "via": 7126,
      "video": 7127,
      "Stepin": 7128,
      "Ads": 7129,
      "Tools": 7130,
      "((((": 7131,
      "')]": 7132,
      "Reset": 7133,
      "assume": 7134,
      "get_include": 7135,
      "accoun": 7136,
      "poses": 7137,
      "Op02": 7138,
      "servers": 7139,
      "predic": 7140,
      "ATED": 7141,
      "caller": 7142,
      "p_level": 7143,
      "portions": 7144,
      "emulation": 7145,
      "locks": 7146,
      "Comsted": 7147,
      "Values": 7148,
      "Serial": 7149,
      "datetime": 7150,
      "assertEquals": 7151,
      "update_": 7152,
      "##################################": 7153,
      "ULT_": 7154,
      "020": 7155,
      "UtenteTabella": 7156,
      "_cx": 7157,
      "default_": 7158,
      "functionData": 7159,
      "selector": 7160,
      "SHELL": 7161,
      "FLAG_P": 7162,
      "olden": 7163,
      "ssl": 7164,
      "CCDirector": 7165,
      "cleansing": 7166,
      "skipp": 7167,
      "is_data": 7168,
      "limitation": 7169,
      "marcus": 7170,
      "something": 7171,
      "Printer": 7172,
      "override": 7173,
      "overrid": 7174,
      "Op28": 7175,
      "FREContextFinalizer": 7176,
      "Absolute": 7177,
      "mediate": 7178,
      "Flags": 7179,
      "AirDispatch": 7180,
      "Maxim": 7181,
      "diff": 7182,
      "Products": 7183,
      "ProductFrom": 7184,
      "PaiCode": 7185,
      ".*;": 7186,
      "WIN32": 7187,
      "HQ2x": 7188,
      "HQ3x": 7189,
      "HQ4x": 7190,
      "gtest_filter": 7191,
      "TRANSI": 7192,
      "Marcus": 7193,
      "everyone": 7194,
      "_with_": 7195,
      "mips_": 7196,
      "converted": 7197,
      "Stdin": 7198,
      "Lines": 7199,
      "providing": 7200,
      "center": 7201,
      "IS_IOS": 7202,
      "svnurl": 7203,
      "Anypoint": 7204,
      "purposes": 7205,
      "StackTrace": 7206,
      "corresponding": 7207,
      "payload": 7208,
      "substanti": 7209,
      "DISABLED_": 7210,
      "splits": 7211,
      "IdleChair": 7212,
      "curAndLenPrice": 7213,
      "FRENewObjectFrom": 7214,
      "parmname": 7215,
      "improvements": 7216,
      "InnerText": 7217,
      "Provider": 7218,
      "FALSE": 7219,
      "NORMAL": 7220,
      "RCClient": 7221,
      "hiend3d": 7222,
      "threshold": 7223,
      "testFieldLen": 7224,
      "Comstedt": 7225,
      "FLAG_PREFIX": 7226,
      "AirDispatchAsync": 7227,
      "IS_IOS6": 7228,
      "substantial": 7229,
      "\"\",": 7230,
      "'},": 7231,
      "'$(": 7232,
      ")&": 7233,
      "42": 7234,
      "90": 7235,
      ":@": 7236,
      "@\"\";": 7237,
      "Au": 7238,
      "Bind": 7239,
      "BASE": 7240,
      "Clean": 7241,
      "DNS": 7242,
      "DWORD": 7243,
      "FS_": 7244,
      "Ico": 7245,
      "IAPU": 7246,
      "MU": 7247,
      "Menu": 7248,
      "PPU": 7249,
      "Sum": 7250,
      "TA": 7251,
      "Te": 7252,
      "UX": 7253,
      "UTI": 7254,
      "Warning": 7255,
      "_start": 7256,
      "_write": 7257,
      "_event": 7258,
      "_parse": 7259,
      "b7": 7260,
      "dit": 7261,
      "duration": 7262,
      "f5": 7263,
      "gi": 7264,
      "hy": 7265,
      "hor": 7266,
      "href": 7267,
      "hard": 7268,
      "iwas": 7269,
      "knight": 7270,
      "m_": 7271,
      "malloc": 7272,
      "mask": 7273,
      "oem": 7274,
      "pv": 7275,
      "p3_": 7276,
      "s9x": 7277,
      "tb": 7278,
      "vr": 7279,
      "vfp": 7280,
      "开始": 7281,
      "服务": 7282,
      "stor": 7283,
      "reco": 7284,
      "rebuild": 7285,
      "redefinition": 7286,
      "dec": 7287,
      "med": 7288,
      "meas": 7289,
      "could": 7290,
      "isEqual": 7291,
      "lack": 7292,
      "urno": 7293,
      "urll": 7294,
      "loye": 7295,
      "unic": 7296,
      "asm": 7297,
      "REQU": 7298,
      "admin": 7299,
      "restri": 7300,
      "serial": 7301,
      "service": 7302,
      "_full": 7303,
      "systems": 7304,
      "ASCI": 7305,
      "ALV": 7306,
      "maiwas": 7307,
      ")),": 7308,
      ")));": 7309,
      "valent": 7310,
      "lv_result": 7311,
      "licit": 7312,
      "Coefficient": 7313,
      "setShould": 7314,
      "AN_": 7315,
      "pytest": 7316,
      "Poll": 7317,
      "Store": 7318,
      "cl_json_": 7319,
      "2008": 7320,
      "...#.": 7321,
      "('<": 7322,
      "resultWidth": 7323,
      "olation": 7324,
      "imiter": 7325,
      "why": 7326,
      "violation": 7327,
      "Admin": 7328,
      "ToPos": 7329,
      "ToCocos": 7330,
      "ipAnd": 7331,
      "escap": 7332,
      "netTurn": 7333,
      "Op38": 7334,
      "lier": 7335,
      "ADD_": 7336,
      "='%": 7337,
      "needed": 7338,
      "expect_": 7339,
      "zcl_md4": 7340,
      "exit_code": 7341,
      "colon": 7342,
      "matchByte": 7343,
      "Ported": 7344,
      "archive": 7345,
      "','%": 7346,
      "_SQ": 7347,
      "ty_type": 7348,
      "S9xTrace": 7349,
      "0x000": 7350,
      "_ftclear": 7351,
      "expectedcode": 7352,
      "I_LOG_LEVEL": 7353,
      "sender": 7354,
      "FFF": 7355,
      "windows_p3_": 7356,
      "1997": 7357,
      "transposed": 7358,
      "zsknight": 7359,
      "Op1CX": 7360,
      "Op1CY": 7361,
      "Op1CZ": 7362,
      "byte4": 7363,
      "ms_settings": 7364,
      "belnr": 7365,
      "test001_03": 7366,
      "mytab": 7367,
      "MapperDelegate": 7368,
      "DSP3_Add": 7369,
      "is_leap_year": 7370,
      "Disable": 7371,
      "variables": 7372,
      "Op06": 7373,
      "foobar": 7374,
      "mac_ppc_64": 7375,
      "FlashToCocos": 7376,
      "FREContextInitializer": 7377,
      "OSCON": 7378,
      "SubFlow": 7379,
      "Reader": 7380,
      "_description": 7381,
      "FTCSprite": 7382,
      "gty_parameter": 7383,
      "recipients": 7384,
      "quivalent": 7385,
      "executeQuery": 7386,
      "lookChair": 7387,
      "cl_salv_table": 7388,
      "MIME": 7389,
      "receiv": 7390,
      "WaitReconnectionTime": 7391,
      "fire": 7392,
      "costUser": 7393,
      "flight": 7394,
      "extensions": 7395,
      "GAME_": 7396,
      "invocation": 7397,
      "timestamps": 7398,
      "delimiter": 7399,
      "excel": 7400,
      "excel_": 7401,
      "CXXFLAGS": 7402,
      "DD1": 7403,
      "Close": 7404,
      "zaap_l_": 7405,
      "0xFF0000": 7406,
      "0x8000": 7407,
      "GENER": 7408,
      "greater": 7409,
      "dependent": 7410,
      "PROF": 7411,
      "snapshot": 7412,
      "JuShiTime": 7413,
      "Protocol": 7414,
      "sanmaiwas": 7415,
      "_demo_": 7416,
      "QUERY": 7417,
      "LOADED": 7418,
      "BazTest": 7419,
      "consistent": 7420,
      "Respon": 7421,
      "during": 7422,
      "neighbours": 7423,
      "predicate": 7424,
      "recogn": 7425,
      "measure": 7426,
      "isEqualToString": 7427,
      "urnoff": 7428,
      "urllib": 7429,
      "loyee": 7430,
      "ipAndPort": 7431,
      "netTurnRoom": 7432,
      "sanmaiwashi": 7433,
      "\"--": 7434,
      "({": 7435,
      "+'-": 7436,
      ".<": 7437,
      "400": 7438,
      "95": 7439,
      ":\\": 7440,
      ":>{": 7441,
      ">)": 7442,
      ">[": 7443,
      ">).": 7444,
      "Ag": 7445,
      "Act": 7446,
      "Aut": 7447,
      "AIN": 7448,
      "BSE": 7449,
      "Browser": 7450,
      "Cl": 7451,
      "Every": 7452,
      "GC": 7453,
      "HU": 7454,
      "HDMA": 7455,
      "Lay": 7456,
      "May": 7457,
      "Rvars": 7458,
      "UTE": 7459,
      "_r": 7460,
      "_FORMAT": 7461,
      "_ENV_VAR": 7462,
      "_lookChair": 7463,
      "c8": 7464,
      "cations": 7465,
      "citta": 7466,
      "dra": 7467,
      "ea": 7468,
      "eof_": 7469,
      "furn": 7470,
      "gcl_": 7471,
      "ied": 7472,
      "kHash": 7473,
      "mw": 7474,
      "nn": 7475,
      "os_": 7476,
      "pb": 7477,
      "pg": 7478,
      "rary": 7479,
      "rhs": 7480,
      "son": 7481,
      "sublic": 7482,
      "v2_": 7483,
      "wish": 7484,
      "zt": 7485,
      "数据": 7486,
      "是否": 7487,
      "这个": 7488,
      "ors": 7489,
      "sell": 7490,
      "decrement": 7491,
      "meta": 7492,
      "isinstance": 7493,
      "trun": 7494,
      "choo": 7495,
      "=='": 7496,
      "utf": 7497,
      "lfail": 7498,
      "getChild": 7499,
      "getAnagrafe": 7500,
      "()]": 7501,
      "named": 7502,
      "ATO": 7503,
      "codeviolation": 7504,
      "prof": 7505,
      "clicBuffer": 7506,
      "Indirect": 7507,
      "Invalid": 7508,
      "MEM": 7509,
      "ALIVE": 7510,
      "shaw": 7511,
      "buildbo": 7512,
      "lv_line": 7513,
      "lv_rd": 7514,
      "setId": 7515,
      "setAttribute": 7516,
      "addTest": 7517,
      "izon": 7518,
      "voice": 7519,
      "Rec": 7520,
      "TO_": 7521,
      "SEX": 7522,
      "_t100": 7523,
      "Loop": 7524,
      "errno": 7525,
      "('(": 7526,
      "lenLimit": 7527,
      "iv_reason": 7528,
      "iv_containing_object_name": 7529,
      "_OP": 7530,
      "scri": 7531,
      "Delete": 7532,
      "Depend": 7533,
      "whe": 7534,
      "whom": 7535,
      "fromUser": 7536,
      "URCE": 7537,
      "winG": 7538,
      "win_": 7539,
      "Adapter": 7540,
      "div": 7541,
      "subtract": 7542,
      "IMPORT": 7543,
      "texture": 7544,
      "Builders": 7545,
      "NEE": 7546,
      "runA": 7547,
      "Log_M": 7548,
      "PROC": 7549,
      "TERN": 7550,
      "p_n": 7551,
      "bitmap": 7552,
      "Matches": 7553,
      "VER_": 7554,
      "spam": 7555,
      "timeout_index": 7556,
      "abc_call": 7557,
      "TEXTID": 7558,
      "cx_root": 7559,
      "defaultBranch": 7560,
      "SHAR": 7561,
      "0x7FFF": 7562,
      "nonblocking": 7563,
      "maxread": 7564,
      "hashValue": 7565,
      "avmrd": 7566,
      "ternal": 7567,
      "OUTPUT": 7568,
      "ascargs": 7569,
      "_pick": 7570,
      "initialise": 7571,
      "aster": 7572,
      "poly_cx": 7573,
      "barrier": 7574,
      "avmshell_s_": 7575,
      "\".\"": 7576,
      "========================================": 7577,
      "USE_": 7578,
      "ctxInitializer": 7579,
      "ctxFinalizer": 7580,
      "GBR": 7581,
      "displayed": 7582,
      "ftStatus": 7583,
      "struc_": 7584,
      "Framework": 7585,
      "colors": 7586,
      "LZMA_MATCH": 7587,
      "comments": 7588,
      "_invoice": 7589,
      "HashSize": 7590,
      "gui": 7591,
      "scan_struc_": 7592,
      "provide": 7593,
      "accountName": 7594,
      "gty_annotation": 7595,
      "MuleEvent": 7596,
      "DocumentElement": 7597,
      "DAVMFEATURE_S": 7598,
      "!!!!": 7599,
      "spaces": 7600,
      "AAAA": 7601,
      "world_d": 7602,
      "Iterator": 7603,
      "persons": 7604,
      "ConsoleColor": 7605,
      "DEBUGGER": 7606,
      "im_month": 7607,
      "im_year": 7608,
      "TabellaUtente": 7609,
      "kLenNumLow": 7610,
      "solaris_sparc": 7611,
      "plain": 7612,
      "integer": 7613,
      "bounds": 7614,
      "charge": 7615,
      "ATTRIBUTE": 7616,
      "Available": 7617,
      "BarTest": 7618,
      "instructions": 7619,
      "message_struct": 7620,
      "message_lines": 7621,
      "winmobile_emulator_compile_factory": 7622,
      "UTF8String": 7623,
      "SOURCE": 7624,
      "_by_": 7625,
      "rypt": 7626,
      "abspath": 7627,
      "SenTestSuite": 7628,
      "getPayload": 7629,
      "read_nonblocking": 7630,
      "Offset": 7631,
      "TEMP_CURRENT_": 7632,
      "LeaveRoom": 7633,
      "traits": 7634,
      "necessary": 7635,
      "selected_class": 7636,
      "HANDLER": 7637,
      "AnimEvent": 7638,
      "prefisso": 7639,
      "LINES": 7640,
      "incoming": 7641,
      "getTestEvent": 7642,
      "DAYS_ALIVE": 7643,
      "EST_RESPONSE": 7644,
      "fingerData": 7645,
      "FREGetObjectAs": 7646,
      "cputype": 7647,
      "AirDispatchAsyncParam": 7648,
      "服务器": 7649,
      "REQUEST_RESPONSE": 7650,
      "restriction": 7651,
      "windows_p3_deep_factory": 7652,
      "BSEG": 7653,
      "eof_index": 7654,
      "furnished": 7655,
      "sublicense": 7656,
      "choose": 7657,
      "buildbot_": 7658,
      "Log_Message": 7659,
      "LZMA_MATCH_LEN": 7660,
      "').": 7661,
      ",&": 7662,
      "2d": 7663,
      "33": 7664,
      "47": 7665,
      "4b": 7666,
      "7s": 7667,
      "8a": 7668,
      "Black": 7669,
      "Dic": 7670,
      "FH": 7671,
      "FIN": 7672,
      "FLO": 7673,
      "FDB": 7674,
      "Float": 7675,
      "GLO": 7676,
      "Gless": 7677,
      "Image": 7678,
      "MY": 7679,
      "NickName": 7680,
      "OCC": 7681,
      "SUP": 7682,
      "Scale": 7683,
      "Tran": 7684,
      "ZA": 7685,
      "_01": 7686,
      "_instance": 7687,
      "_header": 7688,
      "_cost": 7689,
      "azs": 7690,
      "dbre": 7691,
      "e2": 7692,
      "fs": 7693,
      "glob": 7694,
      "happen": 7695,
      "ian": 7696,
      "image": 7697,
      "lcx_": 7698,
      "mm": 7699,
      "mc_fc_": 7700,
      "rm": 7701,
      "sq": 7702,
      "site": 7703,
      "sflight": 7704,
      "tell": 7705,
      "ture": 7706,
      "vprof": 7707,
      "信息": 7708,
      "匹配": 7709,
      "输出": 7710,
      "ately": 7711,
      "envelo": 7712,
      "ctor": 7713,
      "chunk": 7714,
      "abModel": 7715,
      "elle": 7716,
      "get_d": 7717,
      "get_functions": 7718,
      "()).": 7719,
      "testAllScores": 7720,
      "OR_": 7721,
      "conf": 7722,
      "tear": 7723,
      "_first": 7724,
      "proce": 7725,
      "umber": 7726,
      "Chk": 7727,
      "ANK": 7728,
      "STRI": 7729,
      "below": 7730,
      "logs": 7731,
      "completed": 7732,
      "DED_": 7733,
      "rows": 7734,
      "putChild": 7735,
      "ls_list": 7736,
      "iv_challenge": 7737,
      "filePath": 7738,
      "osite": 7739,
      "scroll": 7740,
      "it_structures": 7741,
      "RAM_": 7742,
      "lt_result": 7743,
      "lt_botones": 7744,
      "WHILE": 7745,
      "numbuilds": 7746,
      "Angle": 7747,
      "pped": 7748,
      "charAt": 7749,
      "indexOf": 7750,
      "wrap": 7751,
      "Opcodes": 7752,
      "ITabModel": 7753,
      "i_data": 7754,
      "S_FLAG": 7755,
      "attribute_": 7756,
      "AVE": 7757,
      "workst": 7758,
      "tabList": 7759,
      "currentTest": 7760,
      "currentElement": 7761,
      "many": 7762,
      "aug": 7763,
      "ValueError": 7764,
      "dist2": 7765,
      "nextToken": 7766,
      "DSP4_OP": 7767,
      "node2": 7768,
      "DSP3_S": 7769,
      "regular": 7770,
      "macro": 7771,
      "DBType": 7772,
      "iterations": 7773,
      "optim": 7774,
      "bling": 7775,
      "rv_s": 7776,
      "rv_line": 7777,
      "FFFF": 7778,
      "dictSize": 7779,
      "enableAutoCommit": 7780,
      "PosModel": 7781,
      "Op18": 7782,
      "Runs": 7783,
      "Environ": 7784,
      "SUCCESS": 7785,
      "Shape": 7786,
      "SourceBase": 7787,
      "vectoruint": 7788,
      "processors": 7789,
      "GET_BIT": 7790,
      "FIELD_AZIEND": 7791,
      "ls_fields": 7792,
      "RuoloType": 7793,
      "unittest_": 7794,
      "URREN": 7795,
      "elementStart": 7796,
      "variant": 7797,
      "ACCOUN": 7798,
      "stdin": 7799,
      "mac_intel_64_compile_factory": 7800,
      "waitUser": 7801,
      "distribution": 7802,
      "POST": 7803,
      "_STRUCT": 7804,
      "([^": 7805,
      "dbfeder": 7806,
      "casher": 7807,
      "Abstract": 7808,
      "entityset": 7809,
      "ZCL_UTI": 7810,
      "doorLoad": 7811,
      "operator": 7812,
      "operations": 7813,
      "Behavior": 7814,
      "DEFAULT_": 7815,
      "rt_annotations": 7816,
      "S9xGetWord": 7817,
      "tonumber": 7818,
      "CLzmaEncHandle": 7819,
      "symbols": 7820,
      "Notifier": 7821,
      "sitDownResult": 7822,
      "Mark": 7823,
      "Expected": 7824,
      "lenTest2": 7825,
      "hrname": 7826,
      "type_float_vector": 7827,
      "ExtensionContext": 7828,
      "Schedulers": 7829,
      "werden": 7830,
      "zei": 7831,
      "uffle": 7832,
      "MailNotifier": 7833,
      "TYP_DB_DATA_TAB": 7834,
      "}}{": 7835,
      "execution": 7836,
      "XXFLAGS": 7837,
      "abc_getpropx": 7838,
      "FUNZIONALITA": 7839,
      "DSP1_Cos": 7840,
      "exactly": 7841,
      "lvc_": 7842,
      "acceptance": 7843,
      "retrieve": 7844,
      "lv_keyword": 7845,
      "CONFIGURE_": 7846,
      "updated": 7847,
      "Annotation": 7848,
      "Foreground": 7849,
      "PAI_": 7850,
      "PIPE": 7851,
      "et_entityset": 7852,
      "ThanZero": 7853,
      "mytabstrip": 7854,
      "measurement": 7855,
      "Layer": 7856,
      "GBR555": 7857,
      "scan_struc_stmnt_type": 7858,
      "FINIS": 7859,
      "FLOAT": 7860,
      "GLOBAL": 7861,
      "GlessThanZero": 7862,
      "azsal": 7863,
      "dbrepository": 7864,
      "envelope": 7865,
      "FIELD_AZIENDA_": 7866,
      "dbfederato": 7867,
      "ZCL_UTIL_": 7868,
      "!]": 7869,
      "\"})": 7870,
      "#========================================": 7871,
      "(\\": 7872,
      ")</": 7873,
      "0f": 7874,
      "22": 7875,
      ">,": 7876,
      ">\";": 7877,
      "?,": 7878,
      "AIR": 7879,
      "BREA": 7880,
      "CI_": 7881,
      "EMP": 7882,
      "Edit": 7883,
      "Fl": 7884,
      "FUX": 7885,
      "HR": 7886,
      "Kind": 7887,
      "Ori": 7888,
      "Old": 7889,
      "Pred": 7890,
      "Si": 7891,
      "TRA": 7892,
      "TWE": 7893,
      "UT_": 7894,
      "Yr": 7895,
      "ZAAP_": 7896,
      "ZHU": 7897,
      "_ID": 7898,
      "_token": 7899,
      "_wa": 7900,
      "_FAILURE": 7901,
      "_radius": 7902,
      "bbs": 7903,
      "b_test_factory": 7904,
      "c5": 7905,
      "even": 7906,
      "equivalent": 7907,
      "gt_": 7908,
      "got": 7909,
      "gates": 7910,
      "hx": 7911,
      "kMatch": 7912,
      "nd": 7913,
      "rh": 7914,
      "ru": 7915,
      "tp": 7916,
      "ually": 7917,
      "were": 7918,
      "xcode": 7919,
      "zh": 7920,
      "zip": 7921,
      "zlib": 7922,
      "中的": 7923,
      "可以": 7924,
      "需要": 7925,
      "seed": 7926,
      "around": 7927,
      "really": 7928,
      "itab": 7929,
      "isdir": 7930,
      "isEffect": 7931,
      "entation": 7932,
      "INPUT": 7933,
      "ex_day": 7934,
      "getNome": 7935,
      "getSubFlow": 7936,
      "idList": 7937,
      "no_": 7938,
      "testInvo": 7939,
      "ri_": 7940,
      "ending": 7941,
      "activ": 7942,
      "ALT": 7943,
      "c_cookie": 7944,
      "amr": 7945,
      "','.": 7946,
      "buildslave": 7947,
      "lv_row": 7948,
      "outSize": 7949,
      "adds": 7950,
      "ANNOT": 7951,
      "Remo": 7952,
      "compute": 7953,
      "composite": 7954,
      "sour": 7955,
      "_sp": 7956,
      "_size": 7957,
      "IDUTENTE": 7958,
      "ls_code": 7959,
      "EXTERN": 7960,
      "resultDict": 7961,
      "iv_parameter": 7962,
      "iv_plaintext": 7963,
      "FRESet": 7964,
      "Encoder": 7965,
      "Device": 7966,
      "0101": 7967,
      "state_": 7968,
      "LIR": 7969,
      "lt_select": 7970,
      "curMatch": 7971,
      "ForKey": 7972,
      "userStrIpPort": 7973,
      "UNI": 7974,
      "////////////": 7975,
      "deep_builder": 7976,
      "abcfile": 7977,
      "sourcedata": 7978,
      "matchLvl": 7979,
      "[]);": 7980,
      "Params": 7981,
      "vmtype": 7982,
      "workarea": 7983,
      "tables": 7984,
      "MatchResult": 7985,
      "_SUB": 7986,
      "words": 7987,
      "*\"]])": 7988,
      "MESSAGE_": 7989,
      "abc_decrement": 7990,
      "_cache": 7991,
      "AndGo": 7992,
      "iteral": 7993,
      "BuilderGroups": 7994,
      "Seq": 7995,
      "shouldDisplay": 7996,
      "Overflow": 7997,
      "HTML": 7998,
      "io_descr": 7999,
      "OBJECT_INFO": 8000,
      "INTERP": 8001,
      "INTERFA": 8002,
      "LOW_BITS_MASK": 8003,
      "test_generic_ssh": 8004,
      "gtest_list": 8005,
      "vectordouble_": 8006,
      "addr2": 8007,
      "test001_04": 8008,
      "MOVE_": 8009,
      "WAIT": 8010,
      "DIZHU": 8011,
      "avmshell_64": 8012,
      "Op0D": 8013,
      "containsKey": 8014,
      "_START_": 8015,
      "pcx_s": 8016,
      "FAILE": 8017,
      "Subprocess": 8018,
      "##########################################": 8019,
      "cyclicBuffer": 8020,
      "ParamTest": 8021,
      "verify_": 8022,
      "customizing": 8023,
      "progname": 8024,
      "sb_linux_mips_": 8025,
      "AZS": 8026,
      "ruoloList": 8027,
      "typename": 8028,
      "categories": 8029,
      "CX_OS_": 8030,
      "funcName": 8031,
      "instrs": 8032,
      "Executable": 8033,
      "MODIF": 8034,
      "ele0": 8035,
      "Module": 8036,
      "_round_j": 8037,
      "animationEvents": 8038,
      "halfmoon_": 8039,
      "CX_OS_OBJECT_STATE": 8040,
      "exclude_pattern": 8041,
      "currences": 8042,
      "When": 8043,
      "produ": 8044,
      "_fieldcatalog": 8045,
      "extDataToSet": 8046,
      "provides": 8047,
      "communic": 8048,
      "Closed": 8049,
      "getpropx_v": 8050,
      ")+','": 8051,
      "idleList": 8052,
      "_OUTPUT": 8053,
      "SWR_": 8054,
      "NSMutableDictionary": 8055,
      "mac_ppc_104a": 8056,
      "SCRIP": 8057,
      "encrypt": 8058,
      "bookid": 8059,
      "qiziMoveRecord": 8060,
      "editor": 8061,
      "tests_to": 8062,
      "QueueMethod": 8063,
      "retained": 8064,
      "RangeEnc_Encode": 8065,
      "UsersDatabase": 8066,
      "DateTimeFormat": 8067,
      "propagates": 8068,
      "abc_setpropx": 8069,
      "bullseye": 8070,
      "Changes": 8071,
      "cargar_": 8072,
      "nullable": 8073,
      "trigger": 8074,
      "bzr": 8075,
      "expandtab": 8076,
      "test002_": 8077,
      "RCClientAction": 8078,
      "horizon": 8079,
      "tbxml": 8080,
      "S9xTracef": 8081,
      "recognized": 8082,
      "NEEDED": 8083,
      "DAVMFEATURE_SWF": 8084,
      "sqle": 8085,
      "workstation": 8086,
      "PosModelIndex": 8087,
      "ForegroundColor": 8088,
      "Orientation": 8089,
      "Sibling": 8090,
      "testInvocations": 8091,
      "c_cookie_id": 8092,
      "EXTERN_C": 8093,
      "FAILED": 8094,
      "animationEventsTable": 8095,
      "'</": 8096,
      ")>": 8097,
      ")\\": 8098,
      ")*(": 8099,
      "*,": 8100,
      "46": 8101,
      "BA": 8102,
      "CAUSE": 8103,
      "Cases": 8104,
      "Dri": 8105,
      "Each": 8106,
      "Err": 8107,
      "GLI": 8108,
      "GC_": 8109,
      "IW": 8110,
      "Im": 8111,
      "MK": 8112,
      "OOP": 8113,
      "OSError": 8114,
      "OAM_": 8115,
      "Put": 8116,
      "Quo": 8117,
      "Ram": 8118,
      "RUP": 8119,
      "S9": 8120,
      "SIZE": 8121,
      "Sheet": 8122,
      "Timer": 8123,
      "XL": 8124,
      "[(": 8125,
      "]*": 8126,
      "_un": 8127,
      "_result": 8128,
      "_os": 8129,
      "_Game": 8130,
      "_item": 8131,
      "_values": 8132,
      "_shift": 8133,
      "ai": 8134,
      "aunit_": 8135,
      "bal": 8136,
      "c0": 8137,
      "cing": 8138,
      "dcard": 8139,
      "eat": 8140,
      "fx_": 8141,
      "fetch": 8142,
      "greg": 8143,
      "gja": 8144,
      "iid": 8145,
      "iLen": 8146,
      "lif": 8147,
      "s1": 8148,
      "sk": 8149,
      "tv": 8150,
      "tal_": 8151,
      "地主": 8152,
      "字符": 8153,
      "异常": 8154,
      "断线": 8155,
      "设置": 8156,
      "返回": 8157,
      "iname": 8158,
      "ination": 8159,
      "seu": 8160,
      "secret": 8161,
      "arget_": 8162,
      "retry": 8163,
      "iones": 8164,
      "ross": 8165,
      "isMatch": 8166,
      "ilar": 8167,
      "if_c": 8168,
      "utes": 8169,
      "lo_table": 8170,
      "INDIRECT": 8171,
      "ENSE": 8172,
      "getAll": 8173,
      "getTime": 8174,
      "getDat": 8175,
      "uname": 8176,
      "unsafe": 8177,
      "idcontratto": 8178,
      "idTabellaUtente": 8179,
      "testFile": 8180,
      "rie": 8181,
      "endtry": 8182,
      "Inet": 8183,
      "parsing": 8184,
      "argTypes": 8185,
      "CLOSE": 8186,
      "s_msg": 8187,
      "s_value": 8188,
      "s_dir": 8189,
      "layer": 8190,
      "extnumber": 8191,
      "(\"[%": 8192,
      "lv_data": 8193,
      "lv_count": 8194,
      "msgList": 8195,
      "\"\");": 8196,
      "setGameOver": 8197,
      "setReady": 8198,
      "ASSO": 8199,
      "upstream": 8200,
      "SEQU": 8201,
      "avReg": 8202,
      "objectForKey": 8203,
      "DEP": 8204,
      "();//": 8205,
      "..#..": 8206,
      "_send": 8207,
      "apply": 8208,
      "stats": 8209,
      "ls_when": 8210,
      "LOSS": 8211,
      "TestLib": 8212,
      "EXI": 8213,
      "scnn": 8214,
      "Devs": 8215,
      "Const": 8216,
      "method_name": 8217,
      "test_Score": 8218,
      "NSInvocation": 8219,
      "errorWith": 8220,
      "CONSEQU": 8221,
      "output_dir": 8222,
      "ForXml": 8223,
      "readline": 8224,
      "numDevs": 8225,
      "Resol": 8226,
      "has_": 8227,
      "Builds": 8228,
      "NEGLI": 8229,
      "akes": 8230,
      "posPrev": 8231,
      "Op01": 8232,
      "liv": 8233,
      "commands": 8234,
      "LenToPos": 8235,
      "vely": 8236,
      "RoomMode": 8237,
      "ITS": 8238,
      "i_test": 8239,
      "SetEnvVar": 8240,
      "annotation_tree": 8241,
      "windowLength": 8242,
      "TESTS_FLAG": 8243,
      "TennisTest": 8244,
      "abc_find": 8245,
      "abcasm": 8246,
      "'''.": 8247,
      "modified": 8248,
      "modules": 8249,
      "[].": 8250,
      "tempRef": 8251,
      "basefile": 8252,
      "currentAttributeBuffer": 8253,
      "_BY_": 8254,
      "VERIF": 8255,
      "spect": 8256,
      "Job": 8257,
      "_texture": 8258,
      "_CFLAGS": 8259,
      "_CURRENT": 8260,
      "_RESOURCE": 8261,
      "changeDir": 8262,
      "BuilderNames": 8263,
      "system_error": 8264,
      "handled": 8265,
      "lw_toolbar": 8266,
      "DebugDSP1": 8267,
      "createAccount": 8268,
      "MMGC_": 8269,
      "CONTAIN": 8270,
      "select_options": 8271,
      "SHO": 8272,
      "transient": 8273,
      "Op10": 8274,
      "litProbs": 8275,
      "ickRoomMode": 8276,
      "RunTestLib": 8277,
      "INTERRUP": 8278,
      "xml_": 8279,
      "director": 8280,
      "RULE": 8281,
      "mitive": 8282,
      "fixForXml": 8283,
      "Compil": 8284,
      "\"./": 8285,
      "0x0f": 8286,
      "ACK": 8287,
      "ldap": 8288,
      "PARAMETERS": 8289,
      "android_": 8290,
      "external": 8291,
      "dbc": 8292,
      "kNumAlign": 8293,
      "needs": 8294,
      "indentFactor": 8295,
      "if_aunit_": 8296,
      "extra_": 8297,
      "customer": 8298,
      "QuickRoomMode": 8299,
      "phase": 8300,
      "CHECK_": 8301,
      "lcv_": 8302,
      "require": 8303,
      "op1e_lcv_": 8304,
      "gc_with": 8305,
      "destLen": 8306,
      "MATCHES": 8307,
      "S9xGetByte": 8308,
      "DISCLAI": 8309,
      "LORO": 8310,
      "Selector": 8311,
      "TABLE_UTENTE": 8312,
      "js_output": 8313,
      "Execut": 8314,
      "mac64b": 8315,
      ";;;": 8316,
      "_from_": 8317,
      "gcc": 8318,
      "view_x2": 8319,
      "r_date_calc": 8320,
      "delayafter": 8321,
      "SET_ATTRIBUTES": 8322,
      "kLenNumMid": 8323,
      "VarsUpdate": 8324,
      "winmobile_emulator_": 8325,
      "getNickName": 8326,
      "CostG": 8327,
      "GENCE": 8328,
      "WARNINGS": 8329,
      "bindings": 8330,
      "optrecs": 8331,
      "FUNZIONALITA_": 8332,
      "Receiver": 8333,
      "materials": 8334,
      "Important": 8335,
      "accum": 8336,
      "Synchron": 8337,
      "lr_re": 8338,
      "GET_PRICE": 8339,
      "istorySize": 8340,
      "TestHelper": 8341,
      "CVS": 8342,
      "prev_token": 8343,
      "startupinfo": 8344,
      "dynpro_number": 8345,
      "perf_release_": 8346,
      "similar": 8347,
      "accountest": 8348,
      "TRANSIENT": 8349,
      "_SQL": 8350,
      "PROFITS": 8351,
      "EveryDayLogin": 8352,
      "whether": 8353,
      "OCCURREN": 8354,
      "lcx_error": 8355,
      "PAI_RULE": 8356,
      "Immediate": 8357,
      "Quote": 8358,
      "_unretained": 8359,
      "dcardone": 8360,
      "gjahr": 8361,
      "tvak": 8362,
      "if_ci_test": 8363,
      "unsafe_unretained": 8364,
      "CLOSE0": 8365,
      "test_Score_Game": 8366,
      "CONSEQUENTIAL": 8367,
      "NEGLIGENCE": 8368,
      "kNumAlignBits": 8369,
      "if_aunit_constants": 8370,
      "'!": 8371,
      "(.": 8372,
      "*);": 8373,
      "+'\\": 8374,
      "2Value": 8375,
      "82": 8376,
      "800": 8377,
      ":-": 8378,
      ";<": 8379,
      "<?": 8380,
      "Bl": 8381,
      "Deter": 8382,
      "E0": 8383,
      "FS": 8384,
      "FRI": 8385,
      "GN": 8386,
      "Gr": 8387,
      "HH": 8388,
      "Hall": 8389,
      "IB": 8390,
      "Ign": 8391,
      "JOK": 8392,
      "LAST": 8393,
      "Normalize": 8394,
      "Please": 8395,
      "Rule": 8396,
      "SAP_": 8397,
      "TRE": 8398,
      "Tree": 8399,
      "Title": 8400,
      "Uid": 8401,
      "_L": 8402,
      "_build": 8403,
      "_data_": 8404,
      "_anim": 8405,
      "_CLAUSE": 8406,
      "_barrier": 8407,
      "_qiziMoveRecord": 8408,
      "b5": 8409,
      "ben": 8410,
      "cf": 8411,
      "cdata": 8412,
      "eam": 8413,
      "equal": 8414,
      "fm": 8415,
      "iao": 8416,
      "jp": 8417,
      "lp": 8418,
      "mine": 8419,
      "none": 8420,
      "ntab": 8421,
      "oWin": 8422,
      "oci": 8423,
      "rb_": 8424,
      "sor": 8425,
      "sap": 8426,
      "spr": 8427,
      "tm": 8428,
      "tre": 8429,
      "tex": 8430,
      "tual": 8431,
      "v2": 8432,
      "wal": 8433,
      "xy": 8434,
      "本人": 8435,
      "的xml": 8436,
      "重连": 8437,
      "inner": 8438,
      "or_": 8439,
      "orot": 8440,
      "atti": 8441,
      "ended": 8442,
      "ences": 8443,
      "semap": 8444,
      "rewarded": 8445,
      "mean": 8446,
      "alpha": 8447,
      "anasc": 8448,
      "iscale": 8449,
      "intFrame": 8450,
      "ch_string": 8451,
      "INC": 8452,
      "exc": 8453,
      "todo": 8454,
      "tool": 8455,
      "tools": 8456,
      "total_": 8457,
      "edir": 8458,
      "getInt": 8459,
      "get_text": 8460,
      "getopt": 8461,
      "getCur": 8462,
      "get_score": 8463,
      "getStackTrace": 8464,
      "unexpected": 8465,
      "as_": 8466,
      "asc_": 8467,
      "ON_FAILURE": 8468,
      "nodes": 8469,
      "ptmp": 8470,
      "ender": 8471,
      "proof": 8472,
      "irtual": 8473,
      "parametr": 8474,
      "percent": 8475,
      "ENDS": 8476,
      "amt": 8477,
      "amble": 8478,
      "she": 8479,
      "(\"[": 8480,
      "buildFinished": 8481,
      "lv_msg": 8482,
      "lv_top": 8483,
      "notification": 8484,
      ").'.": 8485,
      "\"\":": 8486,
      "setdefault": 8487,
      "Cheat": 8488,
      "allScores": 8489,
      "TOP": 8490,
      "SED": 8491,
      "log_sub": 8492,
      "_sw": 8493,
      "_sitDownStatus": 8494,
      "ls_stack": 8495,
      "explicit": 8496,
      "within": 8497,
      "Testing": 8498,
      "finite": 8499,
      "controll": 8500,
      "ROOT": 8501,
      "method_processor": 8502,
      "Program": 8503,
      "Project": 8504,
      "011": 8505,
      "test_get_score": 8506,
      "JSONWriter": 8507,
      "subclass": 8508,
      "substring": 8509,
      "fast": 8510,
      "curByte": 8511,
      "cur_line": 8512,
      "ForAll": 8513,
      "ToCurrent": 8514,
      "ById": 8515,
      "reads": 8516,
      "\"\"\"\\": 8517,
      "1024": 8518,
      "ipher": 8519,
      "genProp": 8520,
      "tributors": 8521,
      "path_to_": 8522,
      "GetAddress": 8523,
      "BuildStep": 8524,
      "DEFERRED": 8525,
      "runtests": 8526,
      "preexec": 8527,
      "GameLogic": 8528,
      "interact": 8529,
      "SetAddress": 8530,
      "++]": 8531,
      "loading": 8532,
      "load_time": 8533,
      ">>=": 8534,
      "locked": 8535,
      "SBDST_PROPERTIES": 8536,
      "base64": 8537,
      "passwd": 8538,
      "currentBuild": 8539,
      "currentBuilder": 8540,
      "MatchPrice": 8541,
      "l_year": 8542,
      "manifest": 8543,
      "Error3": 8544,
      "ErrorCode": 8545,
      "assertion": 8546,
      "Join": 8547,
      "auart": 8548,
      "mo_object_processor": 8549,
      "S9xNP": 8550,
      "lines_": 8551,
      "headIco": 8552,
      "nextSibling": 8553,
      "linux_compile_factory": 8554,
      "_REPS": 8555,
      "send_error": 8556,
      "Finish": 8557,
      "blntab": 8558,
      "rv_res": 8559,
      "defaultValue": 8560,
      "backPrev": 8561,
      "requests": 8562,
      "AVMTWE": 8563,
      "5555": 8564,
      "objfile": 8565,
      "getIdazienda": 8566,
      "0x7e": 8567,
      "log_object": 8568,
      "flag_e": 8569,
      "transform": 8570,
      "attrs": 8571,
      "CBase": 8572,
      "byte2": 8573,
      "Flows": 8574,
      "chairAndUserXml": 8575,
      "directive": 8576,
      "Short": 8577,
      "responses": 8578,
      "hash2Value": 8579,
      "WHERE_CLAUSE": 8580,
      "DdzRCLogic": 8581,
      "05A": 8582,
      "initialized": 8583,
      "asteam": 8584,
      "connectionTime": 8585,
      "BOUND_": 8586,
      "Control": 8587,
      "_NOME": 8588,
      "overflow": 8589,
      "locals": 8590,
      "json_object": 8591,
      "VICE": 8592,
      "Retrie": 8593,
      "0x6000": 8594,
      "OnGameOver": 8595,
      "leaveRoom": 8596,
      "scan_token_type": 8597,
      "csvfile": 8598,
      "sb_linux_arm": 8599,
      "definitions": 8600,
      "add_argument": 8601,
      "DSP4_WAIT": 8602,
      "GSU_R": 8603,
      "keepSize": 8604,
      "Traits": 8605,
      "copied": 8606,
      "HandlerContext": 8607,
      ".#.#.#.": 8608,
      "multiplied": 8609,
      "poly_top": 8610,
      "PlayerGlessThanZero": 8611,
      "ChannelHandlerContext": 8612,
      "basic": 8613,
      "_NACCOUN": 8614,
      "APU_": 8615,
      "schedulerGroups": 8616,
      "sitDownUser": 8617,
      "NextStates": 8618,
      "NomiDb": 8619,
      "WEE": 8620,
      "realize": 8621,
      "beginning": 8622,
      "Generated": 8623,
      "FIELD_CONTRATTO_NACCOUN": 8624,
      "zaap_configure": 8625,
      "indirizzo": 8626,
      "Employee": 8627,
      "logicHasUserInRoom": 8628,
      "////////////////////////////////////////////////////////////": 8629,
      "Distances": 8630,
      "appears": 8631,
      "Metadata": 8632,
      "UIViewController": 8633,
      "vazione": 8634,
      "EXPECTED": 8635,
      "RoomStatusByChChess": 8636,
      "encies": 8637,
      "MatchFinder_Get": 8638,
      "PERSISTENT": 8639,
      "PIXEL_FORMAT": 8640,
      "quotes": 8641,
      "RF05A": 8642,
      "_BGR555": 8643,
      "delta2": 8644,
      "DSP3_OP1E_": 8645,
      "LZMA_NUM_REPS": 8646,
      "Related": 8647,
      "TITUTE": 8648,
      "telefono": 8649,
      "FIRST_": 8650,
      "BUILD_PIXEL": 8651,
      "GetStringParamOpt": 8652,
      "skipped": 8653,
      "overrides": 8654,
      "ProviderError3": 8655,
      "Teiid": 8656,
      "excel_read": 8657,
      "ctxInitializerToSet": 8658,
      "ctxFinalizerToSet": 8659,
      "im_year_value": 8660,
      "tests_to_run": 8661,
      "RangeEnc_EncodeBit": 8662,
      "Driver": 8663,
      "断线重连": 8664,
      "seudo": 8665,
      "ionesoci": 8666,
      "errorWithCode": 8667,
      "tempRef_sitDownStatus": 8668,
      "CONTAINER": 8669,
      "FRIENDS": 8670,
      "GNU": 8671,
      "Ignore": 8672,
      "TREE_": 8673,
      "walk": 8674,
      "attivazione": 8675,
      "anascita": 8676,
      "parametrize": 8677,
      "log_subobject": 8678,
      "test_get_score_game": 8679,
      "genPropRelated": 8680,
      "GameLogicServer": 8681,
      "AVMTWEA": 8682,
      "flag_eof": 8683,
      "BOUND_FLOW_NAME": 8684,
      "PlayerGlessThanZeroOnGameOver": 8685,
      "zaap_configure_": 8686,
      "ionesociale": 8687,
      ")|": 8688,
      ",(": 8689,
      ",)": 8690,
      "2atom": 8691,
      ":&": 8692,
      "BZ": 8693,
      "Bod": 8694,
      "BAP": 8695,
      "Custom": 8696,
      "CURRENT": 8697,
      "Cxx": 8698,
      "D5": 8699,
      "DC": 8700,
      "DL": 8701,
      "Did": 8702,
      "D64": 8703,
      "EMPL": 8704,
      "GM": 8705,
      "GOO": 8706,
      "HASH": 8707,
      "JO": 8708,
      "Literal": 8709,
      "MIN": 8710,
      "Master": 8711,
      "NT": 8712,
      "Opp": 8713,
      "PASS": 8714,
      "Pack": 8715,
      "PCBase": 8716,
      "Rt": 8717,
      "Sw": 8718,
      "SA1": 8719,
      "SINESS": 8720,
      "Soft": 8721,
      "SWF": 8722,
      "Tro": 8723,
      "TIN": 8724,
      "T100": 8725,
      "Using": 8726,
      "VIC": 8727,
      "WAN": 8728,
      "Xyz": 8729,
      "ZCLI": 8730,
      "ZIF_": 8731,
      "]=": 8732,
      "_I": 8733,
      "_case": 8734,
      "_VALUE": 8735,
      "_exception": 8736,
      "_resp": 8737,
      "_devclass": 8738,
      "_LOCAL": 8739,
      "aName": 8740,
      "aXMLFile": 8741,
      "bStatus": 8742,
      "bcolors": 8743,
      "c3": 8744,
      "c4": 8745,
      "cach": 8746,
      "caction": 8747,
      "ef": 8748,
      "efer": 8749,
      "fmt": 8750,
      "gress": 8751,
      "green": 8752,
      "gnome": 8753,
      "golden": 8754,
      "hW": 8755,
      "hh": 8756,
      "historySize": 8757,
      "jod": 8758,
      "l_spec": 8759,
      "might": 8760,
      "meng": 8761,
      "mules": 8762,
      "nbs": 8763,
      "pipeline": 8764,
      "speed": 8765,
      "tml": 8766,
      "uan": 8767,
      "ware": 8768,
      "不需要": 8769,
      "的房间": 8770,
      "自动": 8771,
      "这里": 8772,
      "ink": 8773,
      "inv": 8774,
      "incon": 8775,
      "delimited": 8776,
      "anal": 8777,
      "codFis": 8778,
      "isWaitReconnection": 8779,
      "che": 8780,
      "chos": 8781,
      "INARY": 8782,
      "absolute": 8783,
      "abilitato": 8784,
      "their": 8785,
      "getClass": 8786,
      "getLogger": 8787,
      "getFunzionalita": 8788,
      "idx": 8789,
      "name1": 8790,
      "ATABLE": 8791,
      "peat": 8792,
      "contributors": 8793,
      "bus_": 8794,
      "MED": 8795,
      "pool": 8796,
      "ALL_": 8797,
      "0xb7": 8798,
      "t_objects": 8799,
      "s_table": 8800,
      "s_customizing": 8801,
      "ENDFUNCTION": 8802,
      "(\"%(": 8803,
      "builds_dir": 8804,
      "lv_level": 8805,
      "lv_word": 8806,
      "Cook": 8807,
      "setNome": 8808,
      "SEPAR": 8809,
      "_turnoff": 8810,
      "ABI": 8811,
      "('*": 8812,
      "IDENT": 8813,
      "ls_parameter": 8814,
      "ls_header": 8815,
      "TestOne": 8816,
      "EXEMPL": 8817,
      "iv_data": 8818,
      "iv_username": 8819,
      "fileName": 8820,
      "Objects": 8821,
      "Progress": 8822,
      "0100": 8823,
      "NSURL": 8824,
      "NSUTF8String": 8825,
      "CONSTRUCT": 8826,
      "vararg": 8827,
      "numFunctions": 8828,
      "listOf": 8829,
      "ANDRO": 8830,
      "processing": 8831,
      "otstr": 8832,
      "otone": 8833,
      "annotated": 8834,
      "DEFS": 8835,
      "liefer": 8836,
      "ArrayObject": 8837,
      "rep0": 8838,
      "repIndex": 8839,
      "SSIB": 8840,
      "ADVI": 8841,
      "UREMENT": 8842,
      "never": 8843,
      "shell_": 8844,
      "calling": 8845,
      "heap": 8846,
      "CALC": 8847,
      "zcl_des": 8848,
      "matching": 8849,
      "modification": 8850,
      "arm2": 8851,
      "passBuilderGroups": 8852,
      "127": 8853,
      "contained": 8854,
      "ty_print": 8855,
      "WebStatus": 8856,
      "ough": 8857,
      "postMethod": 8858,
      "view_turnoff": 8859,
      "linux_64_compile_factory": 8860,
      "_Carry": 8861,
      "_READ": 8862,
      "_REGEX": 8863,
      "BUSINESS": 8864,
      "Seed": 8865,
      "THEORY": 8866,
      "0x7f": 8867,
      "translate": 8868,
      "deleted": 8869,
      "Op11m": 8870,
      "CBInPlay": 8871,
      "VARI": 8872,
      "EndMark": 8873,
      "SUCH": 8874,
      "SUBS": 8875,
      "fieldname": 8876,
      "Shuffle": 8877,
      "first_match": 8878,
      "FIELD_RUOLO_": 8879,
      "WAY": 8880,
      "0x3f": 8881,
      "program_": 8882,
      "TBXMLAttribute": 8883,
      "poly_p": 8884,
      "skips": 8885,
      "Complete": 8886,
      "zcx_aap_incon": 8887,
      "BOUND": 8888,
      "vertical": 8889,
      "ppc64": 8890,
      "WaitList": 8891,
      "Continue": 8892,
      "BEP": 8893,
      "allowPlayerGlessThanZeroOnGameOver": 8894,
      "AMD64": 8895,
      "EVEN": 8896,
      "POSSIB": 8897,
      "Unrecognized": 8898,
      "CLEAN": 8899,
      "TIMES": 8900,
      "Op21m": 8901,
      "fullName": 8902,
      "############################################": 8903,
      "upload_": 8904,
      "Pause": 8905,
      "IsChar": 8906,
      "IsRep": 8907,
      "IsImportant": 8908,
      "TEST_FLOW": 8909,
      "released": 8910,
      "custom_direct": 8911,
      "library": 8912,
      "keepStdout": 8913,
      "!!!": 8914,
      "AutoMatchRoom": 8915,
      "poly_raster": 8916,
      "poly_bottom": 8917,
      "browsers": 8918,
      "referenced": 8919,
      "_Normalize": 8920,
      "kwmeng": 8921,
      "TRANSP": 8922,
      "Modification": 8923,
      "DAMAGE": 8924,
      "black_": 8925,
      "_RGB565": 8926,
      "TYP_OBJECT_REF": 8927,
      "SinAy": 8928,
      "SinAz": 8929,
      "type_float_matrix": 8930,
      "Assertion": 8931,
      "negotiate": 8932,
      "normalized": 8933,
      "successful": 8934,
      "CosAx": 8935,
      "CosAz": 8936,
      "WEVER": 8937,
      "swfFH": 8938,
      "lostG": 8939,
      "lostId": 8940,
      "Stderr": 8941,
      "BarBehavior": 8942,
      "separated": 8943,
      "remoteAddress": 8944,
      "TopData": 8945,
      "matchFinderObj": 8946,
      "FIELD_CONTRATTO_NOME": 8947,
      "letter": 8948,
      "DSP3_OP": 8949,
      "HOWEVER": 8950,
      "ro_playground": 8951,
      "PBPC": 8952,
      "EXPECT_": 8953,
      "pretty": 8954,
      "pretty_print": 8955,
      "AAP_ANNOT": 8956,
      "possib": 8957,
      "APP_CPPFLAGS": 8958,
      "Referenced": 8959,
      "YEAR": 8960,
      "against": 8961,
      "namic": 8962,
      "LDAPModification": 8963,
      "SERVIC": 8964,
      "DSP3_Bit": 8965,
      "_RGB5551": 8966,
      "GetTestExecutable": 8967,
      "avmshell_sd_64": 8968,
      "map_data": 8969,
      "tennis_score": 8970,
      "_uER": 8971,
      "wl_fieldcat": 8972,
      "SKIP": 8973,
      "iv_methodname": 8974,
      "wa_person": 8975,
      "TRANSACTION": 8976,
      "licensed": 8977,
      "invoked": 8978,
      "ELEMENT_": 8979,
      "ttablo": 8980,
      "Disabled": 8981,
      "Autorot": 8982,
      "PROCUREMENT": 8983,
      "TEMP_CURRENT_OBJECT_IREF": 8984,
      "STRICT": 8985,
      "CONFIGURE_ASSO": 8986,
      "ZAAP_CONFIGURE_ASSO": 8987,
      "zhang": 8988,
      "INTERFACE": 8989,
      "SCRIPT_": 8990,
      "CAUSED": 8991,
      "IWBEP": 8992,
      "S9X_": 8993,
      "living_": 8994,
      "INTERRUPTION": 8995,
      "DISCLAIMED": 8996,
      "Determine": 8997,
      "INCIDENT": 8998,
      "lines_of": 8999,
      "zaap_configure_assoc_": 9000,
      "Body": 9001,
      "GOODS": 9002,
      "ZIF_AAP_ANNOT": 9003,
      "joda": 9004,
      "l_specifier": 9005,
      "mulesoft": 9006,
      "nbsp": 9007,
      "ALL_TESTS": 9008,
      "0xb7c5": 9009,
      "ls_headerdata": 9010,
      "EXEMPLARY": 9011,
      "NSUTF8StringEncoding": 9012,
      "CONSTRUCTOR": 9013,
      "listOfFiles": 9014,
      "liefert": 9015,
      "ADVISED": 9016,
      "SUBSTITUTE": 9017,
      "zcx_aap_incons_customizing": 9018,
      "POSSIBILITY": 9019,
      "TEST_FLOWS_FOLDER_PATH": 9020,
      "FIELD_CONTRATTO_NOMEDB": 9021,
      "SERVICES": 9022,
      "GetTestExecutablePath": 9023,
      "INCIDENTAL": 9024,
      "(\",": 9025,
      "(',": 9026,
      ")!=": 9027,
      "*>": 9028,
      ",))": 9029,
      ".\")": 9030,
      "1d": 9031,
      "5b": 9032,
      "77": 9033,
      "96": 9034,
      "9d": 9035,
      ":])": 9036,
      "=[\"": 9037,
      ">&": 9038,
      "A3": 9039,
      "Bund": 9040,
      "Back": 9041,
      "Bomb": 9042,
      "CF": 9043,
      "Cdata": 9044,
      "CES": 9045,
      "ED_": 9046,
      "EMAIL": 9047,
      "F0": 9048,
      "LGPL": 9049,
      "Large": 9050,
      "Mer": 9051,
      "NP_": 9052,
      "OWN": 9053,
      "Part": 9054,
      "Pixel": 9055,
      "Rom": 9056,
      "Sol": 9057,
      "Save": 9058,
      "SitDown": 9059,
      "Ssl": 9060,
      "TF": 9061,
      "Tuan": 9062,
      "VM": 9063,
      "Waterfall": 9064,
      "Year": 9065,
      "]\"": 9066,
      "_program": 9067,
      "_CODE": 9068,
      "af": 9069,
      "bers": 9070,
      "bb_": 9071,
      "cr": 9072,
      "cAction": 9073,
      "ders": 9074,
      "duce": 9075,
      "dcp": 9076,
      "drag": 9077,
      "ftime": 9078,
      "fresh": 9079,
      "gra": 9080,
      "gm2": 9081,
      "istr": 9082,
      "iable": 9083,
      "kFix": 9084,
      "lation": 9085,
      "mul": 9086,
      "math": 9087,
      "sbook": 9088,
      "take": 9089,
      "target_": 9090,
      "takes": 9091,
      "vc": 9092,
      "xstrlen": 9093,
      "y2": 9094,
      "函数": 9095,
      "客户": 9096,
      "状态": 9097,
      "--;": 9098,
      "atos": 9099,
      "ens": 9100,
      "ency": 9101,
      "ensure": 9102,
      "--------------": 9103,
      "reproduce": 9104,
      "ant_": 9105,
      "cope": 9106,
      "roo": 9107,
      "isvar": 9108,
      "isSub": 9109,
      "if_salv_": 9110,
      "uris": 9111,
      "to_": 9112,
      "tout": 9113,
      "toconfig": 9114,
      "today": 9115,
      "toTestSuite": 9116,
      "ENCE": 9117,
      "edy": 9118,
      "getstrIpPort": 9119,
      "getRep": 9120,
      "getProperty": 9121,
      "unpack": 9122,
      "unless": 9123,
      "idRuolo": 9124,
      "ulate_": 9125,
      "asr": 9126,
      "asign": 9127,
      "()):": 9128,
      "pt_data": 9129,
      "ATOR": 9130,
      "tests_in_": 9131,
      "buzei": 9132,
      "codepage": 9133,
      "_fn": 9134,
      "_fix": 9135,
      "strftime": 9136,
      "ERENCE": 9137,
      "AST_": 9138,
      "arglist": 9139,
      "ALV_": 9140,
      "t_v": 9141,
      "t_msg": 9142,
      "t_transposed": 9143,
      "ENDING": 9144,
      "ENDDO": 9145,
      "made": 9146,
      "omat": 9147,
      "TERED_": 9148,
      "lv_token": 9149,
      "lv_length": 9150,
      "outFile": 9151,
      "outStream": 9152,
      "Coun": 9153,
      "setUp": 9154,
      "tip": 9155,
      "addtoconfig": 9156,
      "Extract": 9157,
      "pyl": 9158,
      "SECON": 9159,
      "Stmt": 9160,
      "objectdescr": 9161,
      "Locale": 9162,
      "Lower": 9163,
      "put_attributes": 9164,
      "ABAP_": 9165,
      "ls_excel": 9166,
      "resultSet": 9167,
      "artBe": 9168,
      "lenRes": 9169,
      "iv_value": 9170,
      "iv_string": 9171,
      "Ent": 9172,
      "_OSTATUS_": 9173,
      "_did": 9174,
      "_db_": 9175,
      "_dummy": 9176,
      "_datos": 9177,
      "sci_": 9178,
      "Devices": 9179,
      "Username": 9180,
      "64BIT": 9181,
      "dio": 9182,
      "lt_data_output": 9183,
      "output_": 9184,
      "Toac": 9185,
      "ToContinue": 9186,
      "ranges": 9187,
      "listdir": 9188,
      "UNAME": 9189,
      "Robot": 9190,
      "get_attributes": 9191,
      "get_annotations": 9192,
      "hasNext": 9193,
      "BuildSet": 9194,
      "runTest": 9195,
      "\")))": 9196,
      "Opcode": 9197,
      "mv_mode": 9198,
      "GameStart": 9199,
      "commandline": 9200,
      "WithScores": 9201,
      "CHAR": 9202,
      "__decl": 9203,
      "i_count": 9204,
      "Logged": 9205,
      "started": 9206,
      "neffect": 9207,
      "expect_list": 9208,
      "parameter_processor": 9209,
      "load_": 9210,
      "connected": 9211,
      "new_doc_ver_no": 9212,
      "match_index": 9213,
      "Ports": 9214,
      "AVE_": 9215,
      "logicCheck": 9216,
      "tabRoom": 9217,
      "12345678": 9218,
      "_BY": 9219,
      "mac_64_": 9220,
      "mac_performance_factory": 9221,
      "REFERENCE": 9222,
      "aotout": 9223,
      "spdup": 9224,
      "*\"--------------------------------------------------------------------": 9225,
      "*\"----------------------------------------------------------------------": 9226,
      "*\"*\"": 9227,
      "min_radius": 9228,
      "UtenteFacade": 9229,
      "linux_performance_factory": 9230,
      "_RESPON": 9231,
      "0xffffff": 9232,
      "iterate": 9233,
      "sendline": 9234,
      "opts": 9235,
      "blur": 9236,
      "Acqui": 9237,
      "synchron": 9238,
      "synthes": 9239,
      "_id_sql": 9240,
      "windows_performance_factory": 9241,
      "obj_name": 9242,
      "stripped": 9243,
      "log_handle": 9244,
      "log_messages": 9245,
      "speculate_": 9246,
      "CBFramework": 9247,
      "sb_windows_compile_factory": 9248,
      "Runtest": 9249,
      "RunWith": 9250,
      "arrayOr": 9251,
      "lastChange": 9252,
      "test001_05": 9253,
      "splitext": 9254,
      "endorse": 9255,
      "zcx_aap_system_error": 9256,
      "parametersDescription": 9257,
      "flows": 9258,
      "_subobjects": 9259,
      "mara": 9260,
      "0x4000": 9261,
      "_START": 9262,
      "sib": 9263,
[...]
